{
  "version": "1.0",
  "truncation": null,
  "padding": null,
  "added_tokens": [],
  "normalizer": null,
  "pre_tokenizer": {
    "type": "Metaspace",
    "replacement": "▁",
    "prepend_scheme": "always",
    "split": true
  },
  "post_processor": null,
  "decoder": null,
  "model": {
    "type": "BPE",
    "dropout": null,
    "unk_token": null,
    "continuing_subword_prefix": null,
    "end_of_word_suffix": null,
    "fuse_unk": false,
    "byte_fallback": false,
    "ignore_merges": false,
    "vocab": {
      "\n": 0,
      "!": 1,
      "\"": 2,
      "$": 3,
      "'": 4,
      "(": 5,
      ")": 6,
      "+": 7,
      ",": 8,
      "-": 9,
      ".": 10,
      "/": 11,
      "0": 12,
      "1": 13,
      "2": 14,
      "3": 15,
      "4": 16,
      "5": 17,
      "7": 18,
      "8": 19,
      "9": 20,
      ":": 21,
      ";": 22,
      "?": 23,
      "A": 24,
      "B": 25,
      "C": 26,
      "D": 27,
      "E": 28,
      "F": 29,
      "G": 30,
      "H": 31,
      "I": 32,
      "J": 33,
      "K": 34,
      "L": 35,
      "M": 36,
      "N": 37,
      "O": 38,
      "P": 39,
      "Q": 40,
      "R": 41,
      "S": 42,
      "T": 43,
      "U": 44,
      "V": 45,
      "W": 46,
      "X": 47,
      "Y": 48,
      "Z": 49,
      "`": 50,
      "a": 51,
      "b": 52,
      "c": 53,
      "d": 54,
      "e": 55,
      "f": 56,
      "g": 57,
      "h": 58,
      "i": 59,
      "j": 60,
      "k": 61,
      "l": 62,
      "m": 63,
      "n": 64,
      "o": 65,
      "p": 66,
      "q": 67,
      "r": 68,
      "s": 69,
      "t": 70,
      "u": 71,
      "v": 72,
      "w": 73,
      "x": 74,
      "y": 75,
      "z": 76,
      "▁": 77,
      "▁t": 78,
      "he": 79,
      "▁a": 80,
      "▁s": 81,
      "▁w": 82,
      "▁the": 83,
      "nd": 84,
      "ed": 85,
      "▁b": 86,
      "▁to": 87,
      "▁and": 88,
      "▁T": 89,
      "▁h": 90,
      "▁f": 91,
      "in": 92,
      "▁wa": 93,
      "re": 94,
      "it": 95,
      "ou": 96,
      "▁l": 97,
      "▁d": 98,
      "▁c": 99,
      "▁p": 100,
      "▁The": 101,
      "ay": 102,
      "▁m": 103,
      "er": 104,
      "▁was": 105,
      "om": 106,
      "▁he": 107,
      "is": 108,
      ".\n": 109,
      "ar": 110,
      "▁n": 111,
      "im": 112,
      "on": 113,
      "▁sa": 114,
      "ll": 115,
      "id": 116,
      "▁S": 117,
      "▁ha": 118,
      "▁g": 119,
      "at": 120,
      "ing": 121,
      "ot": 122,
      "en": 123,
      "an": 124,
      "le": 125,
      "or": 126,
      "▁\"": 127,
      "▁H": 128,
      "▁They": 129,
      "ir": 130,
      "et": 131,
      "am": 132,
      "▁it": 133,
      "▁th": 134,
      "ig": 135,
      "▁He": 136,
      "il": 137,
      "▁in": 138,
      "▁pl": 139,
      "ow": 140,
      "ri": 141,
      "ver": 142,
      "ut": 143,
      "▁be": 144,
      "▁u": 145,
      "▁play": 146,
      "ith": 147,
      "▁said": 148,
      "▁O": 149,
      "▁o": 150,
      "▁with": 151,
      "▁y": 152,
      "▁Tim": 153,
      "▁day": 154,
      "pp": 155,
      "▁On": 156,
      "oo": 157,
      "▁r": 158,
      "ck": 159,
      "▁I": 160,
      "▁She": 161,
      "▁her": 162,
      "ce": 163,
      "ld": 164,
      "▁st": 165,
      "▁his": 166,
      "ke": 167,
      "ked": 168,
      "▁e": 169,
      "▁L": 170,
      "s.": 171,
      "nt": 172,
      "▁you": 173,
      "st": 174,
      "▁big": 175,
      "ve": 176,
      "very": 177,
      "▁B": 178,
      "end": 179,
      "un": 180,
      "▁happ": 181,
      "▁on": 182,
      "y.": 183,
      "e.": 184,
      "all": 185,
      "riend": 186,
      "▁friend": 187,
      "▁M": 188,
      "▁they": 189,
      "▁we": 190,
      "▁had": 191,
      "▁not": 192,
      "her": 193,
      "▁want": 194,
      "▁li": 195,
      "▁said,": 196,
      "▁up": 197,
      "ad": 198,
      "▁of": 199,
      "e,": 200,
      "▁do": 201,
      "▁\n": 202,
      "▁day,": 203,
      "itt": 204,
      "ily": 205,
      "'s": 206,
      "ent": 207,
      "▁that": 208,
      "▁very": 209,
      "ould": 210,
      "▁saw": 211,
      "▁One": 212,
      "▁A": 213,
      "▁for": 214,
      "▁sh": 215,
      "▁so": 216,
      "▁mom": 217,
      "ittle": 218,
      "es": 219,
      "▁she": 220,
      "▁Tom": 221,
      "▁little": 222,
      "ch": 223,
      "▁Lily": 224,
      "\"\n": 225,
      "▁ne": 226,
      "▁tim": 227,
      "▁nam": 228,
      "▁k": 229,
      "▁there": 230,
      "ound": 231,
      "el": 232,
      "▁named": 233,
      "▁were": 234,
      "▁sm": 235,
      "▁bo": 236,
      "▁wanted": 237,
      "▁but": 238,
      "▁happy": 239,
      "out": 240,
      "ved": 241,
      "ht": 242,
      "ird": 243,
      "ake": 244,
      "al": 245,
      "▁an": 246,
      "▁bird": 247,
      "▁It": 248,
      "se": 249,
      "▁too": 250,
      "▁is": 251,
      "ug": 252,
      "▁hel": 253,
      "▁went": 254,
      "▁wh": 255,
      "▁Once": 256,
      "▁help": 257,
      "▁all": 258,
      "▁loo": 259,
      "▁lo": 260,
      "▁upon": 261,
      "ter": 262,
      "▁time,": 263,
      "ore": 264,
      "get": 265,
      "ack": 266,
      "ind": 267,
      "ill": 268,
      "▁as": 269,
      "▁j": 270,
      "▁did": 271,
      "▁fun": 272,
      "▁re": 273,
      "▁at": 274,
      "▁som": 275,
      "gether": 276,
      "ed.": 277,
      "ur": 278,
      "▁se": 279,
      "▁together": 280,
      "ra": 281,
      "!\"": 282,
      "▁tre": 283,
      "ame": 284,
      "▁cat": 285,
      "▁friends": 286,
      "ue": 287,
      "▁toy": 288,
      "▁could": 289,
      "ood": 290,
      "▁dog": 291,
      "ted": 292,
      "▁can": 293,
      "ide": 294,
      "ry": 295,
      "ark": 296,
      "▁their": 297,
      "ec": 298,
      "▁ball": 299,
      "ard": 300,
      "ly": 301,
      "'t": 302,
      "way": 303,
      "▁are": 304,
      "▁played": 305,
      "▁go": 306,
      "▁him": 307,
      "▁ro": 308,
      "▁them": 309,
      "hed": 310,
      "▁gir": 311,
      "▁But": 312,
      "▁fr": 313,
      "ain": 314,
      "▁le": 315,
      "▁girl": 316,
      "ax": 317,
      "▁kn": 318,
      "▁out": 319,
      "um": 320,
      "hen": 321,
      "▁W": 322,
      "▁sad": 323,
      "ul": 324,
      "▁Max": 325,
      "▁cl": 326,
      "▁have": 327,
      "▁\"I": 328,
      "other": 329,
      "▁man": 330,
      "my": 331,
      "ic": 332,
      "oug": 333,
      "▁star": 334,
      "▁loved": 335,
      "▁looked": 336,
      "hing": 337,
      "▁sp": 338,
      "▁found": 339,
      "▁back": 340,
      "▁boy": 341,
      "▁Ben": 342,
      "▁sc": 343,
      "▁car": 344,
      "own": 345,
      "are": 346,
      "▁like": 347,
      "ful": 348,
      "s,": 349,
      "▁bec": 350,
      "▁park": 351,
      "▁J": 352,
      "▁Sam": 353,
      "op": 354,
      "▁Sue": 355,
      "elt": 356,
      "▁make": 357,
      "ick": 358,
      "▁liked": 359,
      "ong": 360,
      "ight": 361,
      "▁would": 362,
      "▁felt": 363,
      "▁fa": 364,
      "You": 365,
      "▁see": 366,
      "round": 367,
      "▁la": 368,
      "ell": 369,
      ".\"\n": 370,
      "ice": 371,
      "ag": 372,
      "▁started": 373,
      "▁no": 374,
      "?\"": 375,
      "▁say": 376,
      "▁asked": 377,
      "▁new": 378,
      "▁al": 379,
      "ought": 380,
      "▁other": 381,
      "▁somet": 382,
      "▁F": 383,
      "▁good": 384,
      "▁ag": 385,
      "▁smil": 386,
      "as": 387,
      "▁me": 388,
      "▁came": 389,
      "▁small": 390,
      "▁br": 391,
      "▁mad": 392,
      "one": 393,
      "▁scar": 394,
      "▁it.": 395,
      "▁away": 396,
      "ob": 397,
      "▁wor": 398,
      "▁Sp": 399,
      "▁thing": 400,
      "▁ex": 401,
      "n,": 402,
      "s.\n": 403,
      "ia": 404,
      "▁something": 405,
      "ome": 406,
      "o,": 407,
      "ook": 408,
      "▁from": 409,
      "▁thought": 410,
      "▁\"T": 411,
      "ried": 412,
      "▁find": 413,
      "▁fl": 414,
      "▁made": 415,
      "ous": 416,
      "▁what": 417,
      "▁put": 418,
      ".\"": 419,
      "▁co": 420,
      "▁mu": 421,
      "▁playing": 422,
      "▁\"W": 423,
      "▁every": 424,
      "▁ran": 425,
      "ach": 426,
      "▁Spot": 427,
      "arn": 428,
      "▁wal": 429,
      "▁Mia": 430,
      "dd": 431,
      "ie": 432,
      "uc": 433,
      "ave": 434,
      "▁down": 435,
      "ile": 436,
      "▁again": 437,
      "▁some": 438,
      "▁tree": 439,
      "▁bl": 440,
      "ure": 441,
      "uck": 442,
      "▁smiled": 443,
      "king": 444,
      "ep": 445,
      "▁laug": 446,
      "▁learn": 447,
      "n't": 448,
      "▁will": 449,
      "if": 450,
      "ab": 451,
      "▁sun": 452,
      "▁box": 453,
      "▁You": 454,
      "▁Mom": 455,
      "▁pr": 456,
      "ret": 457,
      "side": 458,
      "▁around": 459,
      "▁my": 460,
      "▁fe": 461,
      "▁took": 462,
      "oud": 463,
      "!\"\n": 464,
      "▁when": 465,
      "▁sw": 466,
      "▁your": 467,
      "▁lived": 468,
      "▁ch": 469,
      "es,": 470,
      "ny": 471,
      "▁happy.": 472,
      "ish": 473,
      "et's": 474,
      "▁friends.": 475,
      "▁D": 476,
      "▁ab": 477,
      "ank": 478,
      "ed,": 479,
      "▁get": 480,
      "ty": 481,
      "us": 482,
      "oth": 483,
      "▁got": 484,
      "▁lot": 485,
      "ump": 486,
      "▁tried": 487,
      "▁kne": 488,
      "hat": 489,
      "ist": 490,
      "ap": 491,
      "▁know": 492,
      "ust": 493,
      "▁Luc": 494,
      "▁who": 495,
      "▁many": 496,
      "pped": 497,
      "▁dec": 498,
      "▁int": 499,
      "nder": 500,
      "ive": 501,
      "y,": 502,
      "▁knew": 503,
      "▁more": 504,
      "▁about": 505,
      "▁v": 506,
      "▁pret": 507,
      "pen": 508,
      "qu": 509,
      "▁\"L": 510,
      "▁Bob": 511,
      "▁hug": 512,
      "▁any": 513,
      "▁care": 514,
      "ace": 515,
      "▁time": 516,
      "▁learned": 517,
      "on't": 518,
      "▁E": 519,
      "▁ho": 520,
      "use": 521,
      "▁po": 522,
      "urp": 523,
      "fter": 524,
      "▁best": 525,
      "ided": 526,
      "▁exc": 527,
      "▁red": 528,
      "▁open": 529,
      "ause": 530,
      "▁decided": 531,
      "▁water": 532,
      "ower": 533,
      "▁look": 534,
      "▁became": 535,
      "ouse": 536,
      "▁gre": 537,
      "▁dad": 538,
      "▁excit": 539,
      ",\"": 540,
      "ways": 541,
      "▁And": 542,
      "▁Tim.": 543,
      "▁un": 544,
      "▁always": 545,
      "a.": 546,
      "▁because": 547,
      "ss": 548,
      "▁pe": 549,
      "▁Lucy": 550,
      "▁eat": 551,
      "▁into": 552,
      "▁both": 553,
      "▁room": 554,
      "▁\"H": 555,
      "▁laughed": 556,
      "▁ke": 557,
      "ant": 558,
      "le.": 559,
      "nn": 560,
      "udd": 561,
      "▁tr": 562,
      "▁jump": 563,
      "▁\"Y": 564,
      "▁big,": 565,
      "▁show": 566,
      "▁run": 567,
      "▁this": 568,
      "▁Ann": 569,
      "▁nice": 570,
      "▁tree.": 571,
      "▁fast": 572,
      "ris": 573,
      "▁When": 574,
      "ing.": 575,
      "▁feel": 576,
      "ull": 577,
      "▁Lil": 578,
      "urpris": 579,
      "▁sl": 580,
      "?\"\n": 581,
      "er.": 582,
      "our": 583,
      "▁long": 584,
      "▁surpris": 585,
      "▁sk": 586,
      "▁sor": 587,
      "▁am": 588,
      "▁told": 589,
      "▁friend,": 590,
      "ink": 591,
      "▁park.": 592,
      "▁gra": 593,
      "▁His": 594,
      "▁happen": 595,
      "▁rock": 596,
      "▁take": 597,
      "og": 598,
      "▁each": 599,
      "▁pick": 600,
      "ide.": 601,
      "▁tow": 602,
      "lew": 603,
      "▁on,": 604,
      "▁things": 605,
      "▁than": 606,
      "▁gave": 607,
      "▁or": 608,
      "▁mo": 609,
      "▁\"Yes,": 610,
      "▁hom": 611,
      "▁\"Th": 612,
      "imal": 613,
      "▁animal": 614,
      "▁As": 615,
      "▁much": 616,
      "▁Fr": 617,
      "ite": 618,
      "▁need": 619,
      "▁one": 620,
      "ara": 621,
      "▁C": 622,
      "▁str": 623,
      "ff": 624,
      "▁So,": 625,
      "ry.": 626,
      "▁under": 627,
      "ro": 628,
      "ven": 629,
      "▁how": 630,
      "▁old": 631,
      "▁scared": 632,
      "▁clo": 633,
      "etter": 634,
      "ged": 635,
      "▁flower": 636,
      "▁bear": 637,
      "▁too.": 638,
      "▁toys": 639,
      "▁shin": 640,
      "▁together.": 641,
      "▁Anna": 642,
      "ast": 643,
      "▁hous": 644,
      "▁Sara": 645,
      "urt": 646,
      "ally": 647,
      "▁hand": 648,
      "▁home": 649,
      "▁you,": 650,
      "▁didn't": 651,
      "here": 652,
      "▁said.": 653,
      "▁hig": 654,
      "▁fish": 655,
      "▁wat": 656,
      "▁day.": 657,
      "▁kind": 658,
      "▁its": 659,
      "▁We": 660,
      "urn": 661,
      "and": 662,
      "▁\"M": 663,
      "▁pretty": 664,
      "ched": 665,
      "▁cle": 666,
      "▁sad.": 667,
      "ft": 668,
      "pl": 669,
      "▁excited": 670,
      "▁just": 671,
      "▁Then,": 672,
      "▁\"O": 673,
      "▁fi": 674,
      "▁walked": 675,
      "▁ide": 676,
      "▁near": 677,
      "▁In": 678,
      "▁com": 679,
      "▁tw": 680,
      "▁en": 681,
      "ang": 682,
      "ow,": 683,
      "isten": 684,
      "▁Her": 685,
      "▁food": 686,
      "▁Lily.": 687,
      "▁From": 688,
      "▁listen": 689,
      "▁better": 690,
      "fe": 691,
      "▁te": 692,
      "▁share": 693,
      "ving": 694,
      "▁heard": 695,
      "▁bug": 696,
      "▁house": 697,
      "▁if": 698,
      "pec": 699,
      "▁try": 700,
      "▁stor": 701,
      "▁then,": 702,
      "▁him.": 703,
      "▁book": 704,
      "▁never": 705,
      "▁K": 706,
      "▁careful": 707,
      "ial": 708,
      "▁flew": 709,
      "▁\"Thank": 710,
      "▁outside": 711,
      "▁sn": 712,
      "▁mom.": 713,
      "▁love": 714,
      "▁fun.": 715,
      "oon": 716,
      "▁then": 717,
      "▁Every": 718,
      "sed": 719,
      "▁happy.\n": 720,
      "ecial": 721,
      "▁special": 722,
      "▁lots": 723,
      "ex": 724,
      "▁friends.\n": 725,
      "ore.": 726,
      "▁don't": 727,
      "ion": 728,
      "!\n": 729,
      "imb": 730,
      "▁end": 731,
      "ly,": 732,
      "▁fore": 733,
      "ess": 734,
      "▁sorry": 735,
      "▁fo": 736,
      "▁anym": 737,
      "▁climb": 738,
      "▁wind": 739,
      "ream": 740,
      "side.": 741,
      "▁mag": 742,
      "▁door": 743,
      "ak": 744,
      "ise": 745,
      "▁tal": 746,
      "▁high": 747,
      "▁even": 748,
      "▁Amy": 749,
      "▁gr": 750,
      "▁\"N": 751,
      "ber": 752,
      "▁bu": 753,
      "▁cake": 754,
      "udden": 755,
      "ort": 756,
      "▁hard": 757,
      "▁Tim's": 758,
      "rm": 759,
      "▁peop": 760,
      "▁ball.": 761,
      "▁col": 762,
      "ock": 763,
      "▁them.": 764,
      "'m": 765,
      "▁bad": 766,
      "▁hurt": 767,
      "▁\"You": 768,
      "▁turn": 769,
      "▁after": 770,
      "▁cu": 771,
      "▁clean": 772,
      "▁happened.": 773,
      "▁fly": 774,
      "bb": 775,
      "▁day.\n": 776,
      "▁thanked": 777,
      "▁come": 778,
      "▁shar": 779,
      "▁fam": 780,
      "▁gl": 781,
      "▁over": 782,
      "▁by": 783,
      "▁unex": 784,
      "▁unexpec": 785,
      "et.": 786,
      "▁give": 787,
      "▁picked": 788,
      "▁\"Let's": 789,
      "▁im": 790,
      "▁away.": 791,
      "▁ever": 792,
      "▁proud": 793,
      "▁opened": 794,
      "▁N": 795,
      "▁unexpected": 796,
      "▁it.\n": 797,
      "em": 798,
      "▁che": 799,
      "▁inside": 800,
      "ool": 801,
      "▁far": 802,
      "▁together.\n": 803,
      "▁loud": 804,
      "ing,": 805,
      "▁still": 806,
      "uff": 807,
      "▁ground": 808,
      "▁again.": 809,
      "▁hugged": 810,
      "▁P": 811,
      "▁color": 812,
      "▁magic": 813,
      "ase": 814,
      "▁qu": 815,
      "▁Tom.": 816,
      "kay": 817,
      "ild": 818,
      "ail": 819,
      "▁call": 820,
      "arden": 821,
      "▁\"D": 822,
      "▁wait": 823,
      "▁garden": 824,
      "▁read": 825,
      "▁par": 826,
      "ct": 827,
      "▁\"C": 828,
      "▁people": 829,
      "▁off": 830,
      "▁should": 831,
      "▁Jo": 832,
      "▁smile": 833,
      "▁said.\n": 834,
      "ip": 835,
      "▁home.": 836,
      "ough": 837,
      "iz": 838,
      "▁forest": 839,
      "▁walk": 840,
      "ture": 841,
      "▁stay": 842,
      "aut": 843,
      "hy": 844,
      "ate": 845,
      "▁idea.": 846,
      "▁rain": 847,
      "▁Kitt": 848,
      "▁Sudden": 849,
      "▁animals": 850,
      "▁pic": 851,
      "▁frog": 852,
      "▁beaut": 853,
      "▁kid": 854,
      "▁stick": 855,
      "▁squ": 856,
      "▁hat": 857,
      "▁unt": 858,
      "▁shiny": 859,
      "▁bra": 860,
      "▁ang": 861,
      "▁great": 862,
      "pt": 863,
      "▁her.": 864,
      "▁place": 865,
      "elf": 866,
      "ear": 867,
      "▁dan": 868,
      "ine": 869,
      "iful": 870,
      "▁beautiful": 871,
      "▁After": 872,
      "▁until": 873,
      "▁now": 874,
      "▁jo": 875,
      "able": 876,
      "▁\"S": 877,
      "ummy": 878,
      "▁house.": 879,
      "aking": 880,
      "▁sto": 881,
      "▁strong": 882,
      "▁room.": 883,
      "xt": 884,
      "▁doll": 885,
      "▁next": 886,
      "ue.": 887,
      "▁bro": 888,
      "rel": 889,
      "▁jumped": 890,
      "▁Suddenly,": 891,
      "▁helped": 892,
      "y.\n": 893,
      "▁\"No,": 894,
      "▁says,": 895,
      "▁imp": 896,
      "be": 897,
      "▁picture": 898,
      "▁while": 899,
      "▁bird.": 900,
      "▁happily": 901,
      "▁app": 902,
      "▁Fin": 903,
      "▁met": 904,
      "▁thre": 905,
      "▁watch": 906,
      "▁R": 907,
      "▁Th": 908,
      "▁rem": 909,
      "▁boat": 910,
      "▁showed": 911,
      "▁mor": 912,
      "▁blue": 913,
      "▁truck": 914,
      "▁scared.": 915,
      "so": 916,
      "owl": 917,
      "▁fun.\n": 918,
      "▁ad": 919,
      "▁also": 920,
      "▁keep": 921,
      "▁clos": 922,
      "▁being": 923,
      "▁Jack": 924,
      "▁called": 925,
      "▁Kitty": 926,
      "az": 927,
      "▁At": 928,
      "▁tra": 929,
      "▁green": 930,
      "▁dra": 931,
      "ished": 932,
      "unny": 933,
      "▁couldn't": 934,
      "▁leave": 935,
      "▁Fl": 936,
      "es.": 937,
      "▁\"Can": 938,
      "▁\"It": 939,
      "▁bre": 940,
      "▁soft": 941,
      "h.": 942,
      "▁help.": 943,
      "▁fell": 944,
      "▁brave": 945,
      "▁story": 946,
      "▁de": 947,
      "▁lost": 948,
      "▁where": 949,
      "▁ate": 950,
      "▁it,": 951,
      "vent": 952,
      "irst": 953,
      "▁pus": 954,
      "▁warm": 955,
      "▁play.": 956,
      "▁face": 957,
      "▁\"What": 958,
      "▁way": 959,
      "dy": 960,
      "gan": 961,
      "▁dre": 962,
      "▁bef": 963,
      "ed.\n": 964,
      "by": 965,
      "▁Let's": 966,
      "▁everyone": 967,
      "▁Fluff": 968,
      "▁anymore.": 969,
      "▁wo": 970,
      "▁kept": 971,
      "▁soon": 972,
      "om,": 973,
      "irrel": 974,
      "▁fin": 975,
      "▁nodd": 976,
      "leep": 977,
      "one.": 978,
      "▁expl": 979,
      "▁again.\n": 980,
      "▁Sally": 981,
      "▁plan": 982,
      "▁catch": 983,
      "aybe": 984,
      "▁box.": 985,
      "▁squirrel": 986,
      "▁has": 987,
      "▁\"Look": 988,
      "▁think": 989,
      "▁\"Hi": 990,
      "▁dog.": 991,
      "▁two": 992,
      "▁hear": 993,
      "▁ey": 994,
      "▁toys.": 995,
      "ers": 996,
      "ung": 997,
      "▁block": 998,
      "▁pull": 999,
      "er,": 1000,
      "▁G": 1001,
      "▁sat": 1002,
      "▁mean": 1003,
      "irt": 1004,
      "▁pain": 1005,
      "day": 1006,
      "▁safe": 1007,
      "ow.": 1008,
      "▁yummy": 1009,
      "▁stopped": 1010,
      "▁tir": 1011,
      "▁having": 1012,
      "lease": 1013,
      "▁ground.": 1014,
      "▁beh": 1015,
      "▁friends,": 1016,
      "oy": 1017,
      "self": 1018,
      "▁yell": 1019,
      "thing": 1020,
      "▁things.": 1021,
      "uit": 1022,
      "▁work": 1023,
      "air": 1024,
      "▁sunny": 1025,
      "▁pond": 1026,
      "bit": 1027,
      "▁our": 1028,
      "▁\"We": 1029,
      "ry,": 1030,
      "▁cook": 1031,
      "▁family": 1032,
      "▁sky.": 1033,
      "▁head": 1034,
      "▁mommy": 1035,
      "abbit": 1036,
      "▁toy.": 1037,
      "ard.": 1038,
      "▁says.": 1039,
      "▁let's": 1040,
      "ember": 1041,
      "▁used": 1042,
      "▁you.": 1043,
      "▁thr": 1044,
      "▁ask": 1045,
      "▁hop": 1046,
      "les": 1047,
      "▁vo": 1048,
      "uch": 1049,
      "▁mouse": 1050,
      "▁kids": 1051,
      "▁kit": 1052,
      "joy": 1053,
      "▁\"That": 1054,
      "▁flo": 1055,
      "▁mon": 1056,
      "▁Wh": 1057,
      "▁dr": 1058,
      "ge": 1059,
      "ng": 1060,
      "▁looking": 1061,
      "▁Dad": 1062,
      "▁agre": 1063,
      "▁use": 1064,
      "▁rabbit": 1065,
      "▁talk": 1066,
      "▁tri": 1067,
      "▁wr": 1068,
      "▁duck": 1069,
      "▁let": 1070,
      "▁lad": 1071,
      "▁water.": 1072,
      "▁fire": 1073,
      "▁hill": 1074,
      "▁\"B": 1075,
      "▁car.": 1076,
      "aug": 1077,
      "▁first": 1078,
      "▁Can": 1079,
      "aught": 1080,
      "▁friend.": 1081,
      "▁fav": 1082,
      "▁sand": 1083,
      "▁gam": 1084,
      "▁race": 1085,
      "▁remember": 1086,
      "▁sleep": 1087,
      "▁con": 1088,
      "▁enjoy": 1089,
      "llow": 1090,
      "▁smiled.": 1091,
      "▁curi": 1092,
      "▁pie": 1093,
      "▁okay": 1094,
      "▁right": 1095,
      "ble": 1096,
      "▁real": 1097,
      "▁top": 1098,
      "▁asked,": 1099,
      "▁worked": 1100,
      "ning": 1101,
      "▁bright": 1102,
      "▁fix": 1103,
      "ting": 1104,
      "▁sound": 1105,
      "▁dif": 1106,
      "▁Sue.": 1107,
      "▁going": 1108,
      "▁bunny": 1109,
      "▁shared": 1110,
      "▁moral": 1111,
      "▁swing": 1112,
      "▁Do": 1113,
      "▁hole": 1114,
      "chen": 1115,
      "▁outside.": 1116,
      "▁kitchen": 1117,
      "▁\"Hell": 1118,
      "▁rest": 1119,
      "▁follow": 1120,
      "▁import": 1121,
      "ount": 1122,
      "▁nois": 1123,
      "▁here": 1124,
      "▁home,": 1125,
      "▁Fluffy": 1126,
      "▁I'm": 1127,
      "▁cry": 1128,
      "▁can't": 1129,
      "▁This": 1130,
      "▁swe": 1131,
      "▁inside.": 1132,
      "▁began": 1133,
      "▁making": 1134,
      "▁voice": 1135,
      "▁tall": 1136,
      "▁cold": 1137,
      "▁sad,": 1138,
      "▁bus": 1139,
      "▁hid": 1140,
      "▁favor": 1141,
      "▁it's": 1142,
      "▁important": 1143,
      "▁Max.": 1144,
      "▁own": 1145,
      "▁bag": 1146,
      "▁game": 1147,
      "▁advent": 1148,
      "ies": 1149,
      "ma": 1150,
      "▁ri": 1151,
      "iss": 1152,
      "orn": 1153,
      "▁forg": 1154,
      "▁That": 1155,
      "▁cat.": 1156,
      "▁up.": 1157,
      "▁Joh": 1158,
      "illy": 1159,
      "▁favorite": 1160,
      "ane": 1161,
      "▁watched": 1162,
      "▁dis": 1163,
      "on.": 1164,
      "▁walking": 1165,
      "co": 1166,
      "▁back.": 1167,
      "▁sing": 1168,
      "▁ru": 1169,
      "▁funny": 1170,
      "▁\"Don't": 1171,
      "▁behind": 1172,
      "▁ice": 1173,
      "▁pat": 1174,
      "bo": 1175,
      "ch.": 1176,
      "t.": 1177,
      "▁says.\n": 1178,
      "▁before": 1179,
      "▁cut": 1180,
      "▁feeling": 1181,
      "▁floor": 1182,
      "▁tell": 1183,
      "▁hung": 1184,
      "▁mom,": 1185,
      "▁John": 1186,
      "ange": 1187,
      "▁pap": 1188,
      "▁after.\n": 1189,
      "▁night": 1190,
      "age": 1191,
      "▁hot": 1192,
      "▁Timmy": 1193,
      "▁stop": 1194,
      "▁tail": 1195,
      "▁\"I'm": 1196,
      "▁cr": 1197,
      "▁move": 1198,
      "▁song": 1199,
      "▁down.": 1200,
      "ac": 1201,
      "▁town": 1202,
      "▁turned": 1203,
      "que": 1204,
      "ign": 1205,
      "ached": 1206,
      "▁dark": 1207,
      "▁shout": 1208,
      "▁\"Hello,": 1209,
      "▁So": 1210,
      "hes": 1211,
      "▁store": 1212,
      "▁\"Look,": 1213,
      "▁\"Why": 1214,
      "lly": 1215,
      "▁climbed": 1216,
      "▁us": 1217,
      "▁cra": 1218,
      "ect": 1219,
      "▁other.": 1220,
      "▁draw": 1221,
      "▁del": 1222,
      "▁Mr": 1223,
      "▁piece": 1224,
      "▁bel": 1225,
      "ally,": 1226,
      "fere": 1227,
      "▁tast": 1228,
      "led": 1229,
      "▁differe": 1230,
      "▁z": 1231,
      "▁farm": 1232,
      "▁bab": 1233,
      "my.": 1234,
      "▁house,": 1235,
      "▁Now,": 1236,
      "▁adventure": 1237,
      "▁Mommy": 1238,
      "▁cool": 1239,
      "▁does": 1240,
      "▁sho": 1241,
      "▁fruit": 1242,
      "▁\"Hi,": 1243,
      "▁surprised": 1244,
      "▁needed": 1245,
      "▁ant": 1246,
      "▁sky": 1247,
      "ass": 1248,
      "▁nodded": 1249,
      "ient": 1250,
      "iny": 1251,
      "▁different": 1252,
      "▁\"It's": 1253,
      "▁Lily's": 1254,
      "ais": 1255,
      "▁reached": 1256,
      "ster": 1257,
      "▁Bobo": 1258,
      "▁Then": 1259,
      "▁Everyone": 1260,
      "ty.": 1261,
      "▁touch": 1262,
      "▁goodby": 1263,
      "where": 1264,
      "ide,": 1265,
      "▁train": 1266,
      "▁dance": 1267,
      "▁wood": 1268,
      "▁stuck": 1269,
      "▁park,": 1270,
      "▁pretend": 1271,
      "▁pu": 1272,
      "▁another": 1273,
      "▁wall": 1274,
      "▁noise": 1275,
      "▁hold": 1276,
      "▁surprised.": 1277,
      "▁less": 1278,
      "▁cre": 1279,
      "▁All": 1280,
      "ious": 1281,
      "▁me.": 1282,
      "▁only": 1283,
      "▁says": 1284,
      "▁slide": 1285,
      "ken": 1286,
      "▁roll": 1287,
      "▁cla": 1288,
      "▁\"Mom,": 1289,
      "▁swim": 1290,
      "▁amaz": 1291,
      "▁glad": 1292,
      "▁bit": 1293,
      "▁together,": 1294,
      "▁Mr.": 1295,
      "lf": 1296,
      "▁lion": 1297,
      "▁repl": 1298,
      "▁full": 1299,
      "▁friendly": 1300,
      "▁sorry,": 1301,
      "▁bat": 1302,
      "▁wear": 1303,
      "▁time.": 1304,
      "▁prom": 1305,
      "▁sweet": 1306,
      "zz": 1307,
      "▁sad.\n": 1308,
      "ike": 1309,
      "▁saf": 1310,
      "ing.\n": 1311,
      "▁moment": 1312,
      "▁Soon": 1313,
      "▁broken": 1314,
      "▁dri": 1315,
      "▁sees": 1316,
      "▁Ben.": 1317,
      "▁them.\n": 1318,
      "bbed": 1319,
      "▁danc": 1320,
      "▁too.\n": 1321,
      "▁Sam.": 1322,
      "▁party": 1323,
      "▁anymore": 1324,
      "▁per": 1325,
      "▁might": 1326,
      "▁ste": 1327,
      "ss.": 1328,
      "▁mat": 1329,
      "▁quick": 1330,
      "▁yellow": 1331,
      "oom": 1332,
      "▁ac": 1333,
      "▁cream": 1334,
      "▁been": 1335,
      "▁butter": 1336,
      "▁wonder": 1337,
      "▁smell": 1338,
      "▁\"Wow,": 1339,
      "▁garden.": 1340,
      "▁pushed": 1341,
      "▁hair": 1342,
      "av": 1343,
      "▁flowers": 1344,
      "▁helping": 1345,
      "ather": 1346,
      "▁fair": 1347,
      "▁away.\n": 1348,
      "▁prin": 1349,
      "▁ar": 1350,
      "▁win": 1351,
      "▁mus": 1352,
      "▁bar": 1353,
      "▁birds": 1354,
      "▁wished": 1355,
      "▁eyes": 1356,
      "▁angry": 1357,
      "▁Jane": 1358,
      "▁please": 1359,
      "▁cloud": 1360,
      "▁reach": 1361,
      "▁fast.": 1362,
      "▁Spot.": 1363,
      "ly.": 1364,
      "▁held": 1365,
      "icy": 1366,
      "asure": 1367,
      "▁cri": 1368,
      "▁him.\n": 1369,
      "▁Just": 1370,
      "able.": 1371,
      "▁looks": 1372,
      "▁dress": 1373,
      "'re": 1374,
      "▁owl": 1375,
      "▁balloon": 1376,
      "▁Lila": 1377,
      "▁dog,": 1378,
      "▁cast": 1379,
      "iced": 1380,
      "▁happy,": 1381,
      "▁must": 1382,
      "▁listened": 1383,
      "▁baby": 1384,
      "▁do.": 1385,
      "▁It's": 1386,
      "▁cup": 1387,
      "▁sorry.": 1388,
      "▁join": 1389,
      "er.\n": 1390,
      "ous.": 1391,
      "▁light": 1392,
      "▁dad.": 1393,
      "▁thank": 1394,
      "▁apple": 1395,
      "▁Dais": 1396,
      "▁wag": 1397,
      "ation": 1398,
      "se.": 1399,
      "▁To": 1400,
      "▁Budd": 1401,
      "▁\"Okay": 1402,
      "▁pa": 1403,
      "▁child": 1404,
      "▁sit": 1405,
      "▁fight": 1406,
      "▁wise": 1407,
      "▁fall": 1408,
      "▁dro": 1409,
      "▁left": 1410,
      "▁sometim": 1411,
      "▁grand": 1412,
      "▁town,": 1413,
      "▁through": 1414,
      "▁repli": 1415,
      "▁Soon,": 1416,
      "e.\n": 1417,
      "▁bed": 1418,
      "ue,": 1419,
      "▁mar": 1420,
      "▁chair": 1421,
      "▁dream": 1422,
      "▁build": 1423,
      "▁tiny": 1424,
      "▁brother": 1425,
      "▁gif": 1426,
      "▁laugh": 1427,
      "▁enjoyed": 1428,
      "▁perf": 1429,
      "▁ve": 1430,
      "▁pen": 1431,
      "▁up,": 1432,
      "▁wet": 1433,
      "▁waved": 1434,
      "▁angry.": 1435,
      "▁black": 1436,
      "ily.": 1437,
      "cle": 1438,
      "▁tree,": 1439,
      "▁scared,": 1440,
      "▁underst": 1441,
      "ott": 1442,
      "▁swam": 1443,
      "▁bigg": 1444,
      "▁sure": 1445,
      "▁blew": 1446,
      "▁\"G": 1447,
      "▁better.": 1448,
      "man": 1449,
      "▁excited.": 1450,
      "▁buy": 1451,
      "▁running": 1452,
      "▁threw": 1453,
      "▁There": 1454,
      "▁seen": 1455,
      "▁worry,": 1456,
      "▁long.": 1457,
      "▁idea": 1458,
      "▁colorful": 1459,
      "▁lady": 1460,
      "▁curious": 1461,
      "▁nest": 1462,
      "▁ready": 1463,
      "▁break": 1464,
      "zy": 1465,
      "▁din": 1466,
      "ask": 1467,
      "▁why": 1468,
      "▁butterf": 1469,
      "▁Tom's": 1470,
      "▁grabbed": 1471,
      "ix": 1472,
      "oup": 1473,
      "▁yard.": 1474,
      "▁anything": 1475,
      "▁While": 1476,
      "▁word": 1477,
      "▁remembered": 1478,
      "▁hands": 1479,
      "▁closer": 1480,
      "▁count": 1481,
      "▁food.": 1482,
      "▁pink": 1483,
      "▁\"That's": 1484,
      "▁cont": 1485,
      "com": 1486,
      "▁door.": 1487,
      "▁home.\n": 1488,
      "▁stayed": 1489,
      "▁away,": 1490,
      "▁job": 1491,
      "▁spl": 1492,
      "room": 1493,
      "▁trying": 1494,
      "▁end,": 1495,
      "▁arm": 1496,
      "▁gent": 1497,
      "▁Finally,": 1498,
      "rot": 1499,
      "▁\"Okay,": 1500,
      "ield": 1501,
      "▁broke": 1502,
      "▁mess": 1503,
      "▁world": 1504,
      "▁comp": 1505,
      "▁quickly": 1506,
      "▁ball,": 1507,
      "▁much.": 1508,
      "▁pulled": 1509,
      "▁air": 1510,
      "▁mout": 1511,
      "▁you.\"\n": 1512,
      "▁noticed": 1513,
      "af": 1514,
      "▁Tom,": 1515,
      "▁cars": 1516,
      "▁hopped": 1517,
      "▁cand": 1518,
      "▁set": 1519,
      "▁heav": 1520,
      "▁spot": 1521,
      "▁Tim,": 1522,
      "▁land": 1523,
      "▁\"Oh": 1524,
      "▁walk.": 1525,
      "ered": 1526,
      "▁doing": 1527,
      "▁likes": 1528,
      "▁treat": 1529,
      "▁followed": 1530,
      "▁makes": 1531,
      "ised": 1532,
      "▁close": 1533,
      "▁explore": 1534,
      "one,": 1535,
      "▁stu": 1536,
      "▁fill": 1537,
      "▁Lily,": 1538,
      "ctor": 1539,
      "es.\n": 1540,
      "▁pol": 1541,
      "▁clapped": 1542,
      "▁tight": 1543,
      "▁forgot": 1544,
      "▁rel": 1545,
      "▁goodbye": 1546,
      "▁year": 1547,
      "▁you.\"": 1548,
      "▁\"This": 1549,
      "▁wrong": 1550,
      "▁name": 1551,
      "▁bran": 1552,
      "▁paper": 1553,
      "ppy": 1554,
      "ized": 1555,
      "▁playing,": 1556,
      "▁surprise": 1557,
      "▁vis": 1558,
      "▁Jen": 1559,
      "▁delic": 1560,
      "▁mum": 1561,
      "▁friend.\n": 1562,
      "ash": 1563,
      "▁visit": 1564,
      "ere": 1565,
      "▁hide": 1566,
      "▁himself": 1567,
      "side,": 1568,
      "▁hit": 1569,
      "▁What": 1570,
      "▁asked.": 1571,
      "▁Daisy": 1572,
      "▁pot": 1573,
      "▁noise.": 1574,
      "▁animals.": 1575,
      "▁Sarah": 1576,
      "ph": 1577,
      "▁dirt": 1578,
      "▁plant": 1579,
      "▁asked.\n": 1580,
      "▁park.\n": 1581,
      "▁cried": 1582,
      "art": 1583,
      "sh": 1584,
      "▁rock.": 1585,
      "▁Tommy": 1586,
      "▁others": 1587,
      "olly": 1588,
      "▁bott": 1589,
      "▁mix": 1590,
      "▁je": 1591,
      "▁out.": 1592,
      "▁everywhere": 1593,
      "s.\"\n": 1594,
      "▁tree.\n": 1595,
      "▁Joe": 1596,
      "▁bowl": 1597,
      "▁ju": 1598,
      "ister": 1599,
      "▁bird,": 1600,
      "▁music": 1601,
      "▁sign": 1602,
      "▁family.": 1603,
      "▁wants": 1604,
      "▁snow": 1605,
      "full": 1606,
      "▁min": 1607,
      "▁floor.": 1608,
      "▁sail": 1609,
      "▁brought": 1610,
      "▁qui": 1611,
      "▁cam": 1612,
      "▁clot": 1613,
      "▁nice.": 1614,
      "k.": 1615,
      "▁laughed.": 1616,
      "▁tired": 1617,
      "▁But,": 1618,
      "▁grow": 1619,
      "▁Buddy": 1620,
      "ued": 1621,
      "▁hone": 1622,
      "orm": 1623,
      "▁slow": 1624,
      "▁coming": 1625,
      "▁\"Do": 1626,
      "▁fre": 1627,
      "▁talked": 1628,
      "▁bee": 1629,
      "▁pre": 1630,
      "leas": 1631,
      "▁jar": 1632,
      "▁say,": 1633,
      "ucky": 1634,
      "▁-": 1635,
      "▁wing": 1636,
      "ance": 1637,
      "▁forest.": 1638,
      "▁three": 1639,
      "▁game.": 1640,
      "▁replied,": 1641,
      "▁deep": 1642,
      "▁kitchen.": 1643,
      "▁sister": 1644,
      "▁treasure": 1645,
      "arent": 1646,
      "▁\"Maybe": 1647,
      "▁Z": 1648,
      "ead": 1649,
      "▁safe.": 1650,
      "ez": 1651,
      "▁bor": 1652,
      "ny.": 1653,
      "imi": 1654,
      "▁round": 1655,
      "▁Maybe": 1656,
      "▁blocks": 1657,
      "ate.": 1658,
      "▁leg": 1659,
      "der": 1660,
      "▁nap": 1661,
      "▁monke": 1662,
      "o.": 1663,
      "▁paint": 1664,
      "▁sec": 1665,
      "▁turns": 1666,
      "▁creat": 1667,
      "▁cake.": 1668,
      "▁\"A": 1669,
      "anger": 1670,
      "▁river": 1671,
      "oun": 1672,
      "▁parent": 1673,
      "▁pond.": 1674,
      "▁table": 1675,
      "▁thought,": 1676,
      "▁Mimi": 1677,
      "▁really": 1678,
      "▁Em": 1679,
      "▁res": 1680,
      "▁sharing": 1681,
      "▁contin": 1682,
      "iant": 1683,
      "▁too,": 1684,
      "ire": 1685,
      "▁Lucy.": 1686,
      "▁agreed": 1687,
      "▁bike": 1688,
      "de": 1689,
      "▁her.\n": 1690,
      "▁slide.": 1691,
      "eddy": 1692,
      "▁fur": 1693,
      "▁secret": 1694,
      "ence": 1695,
      "mb": 1696,
      "p.": 1697,
      "▁\"P": 1698,
      "▁carefull": 1699,
      "▁forest,": 1700,
      "▁understand": 1701,
      "▁leaves": 1702,
      "▁prince": 1703,
      "▁el": 1704,
      "▁wel": 1705,
      "▁blank": 1706,
      "▁waited": 1707,
      "▁poin": 1708,
      "▁fox": 1709,
      "▁bigger": 1710,
      "eb": 1711,
      "▁today": 1712,
      "▁everything": 1713,
      "▁someone": 1714,
      "▁white": 1715,
      "▁finished": 1716,
      "leph": 1717,
      "▁end.\n": 1718,
      "▁que": 1719,
      "▁childre": 1720,
      "▁att": 1721,
      "▁Sam,": 1722,
      "ross": 1723,
      "ake.": 1724,
      "▁brown": 1725,
      "▁anymore.\n": 1726,
      "vel": 1727,
      "▁Mia.": 1728,
      "▁leaf": 1729,
      "age.": 1730,
      "▁table.": 1731,
      "app": 1732,
      "▁continued": 1733,
      "▁gu": 1734,
      "▁girl.": 1735,
      "▁start": 1736,
      "▁wave": 1737,
      "▁ca": 1738,
      "▁purp": 1739,
      "▁pudd": 1740,
      "▁down,": 1741,
      "th": 1742,
      "▁Gra": 1743,
      "▁wish": 1744,
      "▁promised": 1745,
      "▁dinn": 1746,
      "ary": 1747,
      "▁shell": 1748,
      "▁monster": 1749,
      "▁Inside": 1750,
      "per": 1751,
      "irty": 1752,
      "▁butt": 1753,
      "▁colors": 1754,
      "▁pictures": 1755,
      "row": 1756,
      "▁dirty": 1757,
      "▁mud": 1758,
      "▁around.": 1759,
      "ie.": 1760,
      "ipp": 1761,
      "▁mis": 1762,
      "▁it.\"\n": 1763,
      "itten": 1764,
      "▁flying": 1765,
      "▁ride": 1766,
      "▁rainb": 1767,
      "▁tired.": 1768,
      "▁with.": 1769,
      "▁well": 1770,
      "▁children": 1771,
      "cy": 1772,
      "▁lon": 1773,
      "▁me,": 1774,
      "▁beach": 1775,
      "▁Billy": 1776,
      "▁kick": 1777,
      "▁Ch": 1778,
      "▁lonel": 1779,
      "▁laughing": 1780,
      "▁realized": 1781,
      "▁quiet": 1782,
      "os": 1783,
      "al.": 1784,
      "▁hard.": 1785,
      "stead": 1786,
      "▁me?\"": 1787,
      "▁there.": 1788,
      "▁boy.": 1789,
      "▁key": 1790,
      "▁runs": 1791,
      "▁while,": 1792,
      "▁throw": 1793,
      "▁filled": 1794,
      "▁whe": 1795,
      "▁hor": 1796,
      "gg": 1797,
      "▁mes": 1798,
      "▁drink": 1799,
      "▁Be": 1800,
      "▁box,": 1801,
      "▁tower": 1802,
      "▁hands.": 1803,
      "▁listen.": 1804,
      "▁perfect": 1805,
      "▁Le": 1806,
      "▁cat,": 1807,
      "▁doctor": 1808,
      "pe": 1809,
      "▁bask": 1810,
      "▁shap": 1811,
      "'ll": 1812,
      "fus": 1813,
      "▁sang": 1814,
      "▁long.\n": 1815,
      "▁wagged": 1816,
      "▁field": 1817,
      "chool": 1818,
      "▁gift": 1819,
      "▁butterfly": 1820,
      "▁Grand": 1821,
      "▁again,": 1822,
      "ad.": 1823,
      "▁Jim": 1824,
      "▁fish.": 1825,
      "▁paw": 1826,
      "▁him,": 1827,
      "▁twin": 1828,
      "▁castle": 1829,
      "▁purple": 1830,
      "hes.": 1831,
      "▁spr": 1832,
      "▁thinks": 1833,
      "▁without": 1834,
      "▁tap": 1835,
      "▁play.\n": 1836,
      "▁mom.\n": 1837,
      "▁moved": 1838,
      "▁lesson": 1839,
      "▁danced": 1840,
      "iver": 1841,
      "ord": 1842,
      "▁stand": 1843,
      "▁coat": 1844,
      "▁pretty.": 1845,
      "▁monkey": 1846,
      "▁egg": 1847,
      "▁getting": 1848,
      "▁you!\"": 1849,
      "▁small,": 1850,
      "▁sun.": 1851,
      "▁snack": 1852,
      "▁head.": 1853,
      "▁hill.": 1854,
      "a,": 1855,
      "in.": 1856,
      "▁bring": 1857,
      "ies.": 1858,
      "▁Now": 1859,
      "▁school": 1860,
      "▁happy!": 1861,
      "▁drag": 1862,
      "thy": 1863,
      "▁fan": 1864,
      "▁past": 1865,
      "itting": 1866,
      "▁\"Tim": 1867,
      "▁window": 1868,
      "▁teddy": 1869,
      "▁boun": 1870,
      "▁pig": 1871,
      "▁carrot": 1872,
      "▁good.": 1873,
      "▁\"But": 1874,
      "▁okay,": 1875,
      "▁Max,": 1876,
      "ne": 1877,
      "▁living": 1878,
      "▁other.\n": 1879,
      "▁higher": 1880,
      "▁push": 1881,
      "▁belie": 1882,
      "▁rolled": 1883,
      "▁night,": 1884,
      "▁miss": 1885,
      "isk": 1886,
      "▁scream": 1887,
      "▁Sue's": 1888,
      "▁flowers.": 1889,
      "▁bath": 1890,
      "ar.": 1891,
      "▁grass.": 1892,
      "▁enough": 1893,
      "▁face.": 1894,
      "▁hungry.": 1895,
      "▁Bu": 1896,
      "▁soup": 1897,
      "▁fit": 1898,
      "▁power": 1899,
      "▁trees": 1900,
      "▁scary": 1901,
      "▁\"The": 1902,
      "▁careful.": 1903,
      "▁barked": 1904,
      "▁welcom": 1905,
      "▁mother": 1906,
      "▁bear.": 1907,
      "▁smile.": 1908,
      "▁live": 1909,
      "▁smo": 1910,
      "▁time.\n": 1911,
      "▁orange": 1912,
      "▁blocks.": 1913,
      "fort": 1914,
      "ich": 1915,
      "▁bed.": 1916,
      "▁cow": 1917,
      "▁help.\n": 1918,
      "ards": 1919,
      "▁vill": 1920,
      "▁caught": 1921,
      "▁sear": 1922,
      "▁closed": 1923,
      "rat": 1924,
      "ent.": 1925,
      "▁heavy": 1926,
      "▁pet": 1927,
      "▁shr": 1928,
      "▁toys,": 1929,
      "▁hole.": 1930,
      "ho": 1931,
      "▁Lis": 1932,
      "▁Molly": 1933,
      "▁Mom.": 1934,
      "▁books": 1935,
      "▁played,": 1936,
      "▁Ell": 1937,
      "▁hungry": 1938,
      "▁arri": 1939,
      "ible": 1940,
      "▁su": 1941,
      "▁Tim!": 1942,
      "▁\"OK": 1943,
      "▁bad.": 1944,
      "▁chees": 1945,
      "sc": 1946,
      "▁gone": 1947,
      "▁stre": 1948,
      "▁king": 1949,
      "▁sitting": 1950,
      "▁mone": 1951,
      "▁ball.\n": 1952,
      "▁smart": 1953,
      "▁help,": 1954,
      "▁hoped": 1955,
      "▁Whisk": 1956,
      "▁side": 1957,
      "▁buck": 1958,
      "ine.": 1959,
      "▁was.": 1960,
      "▁spin": 1961,
      "▁dropped": 1962,
      "▁danger": 1963,
      "▁cry.": 1964,
      "▁ph": 1965,
      "arm": 1966,
      "▁shad": 1967,
      "▁it.\"": 1968,
      "▁mist": 1969,
      "▁rob": 1970,
      "col": 1971,
      "▁cho": 1972,
      "▁Bob.": 1973,
      "se,": 1974,
      "▁wore": 1975,
      "▁lun": 1976,
      "▁inc": 1977,
      "▁yard": 1978,
      "board": 1979,
      "lower": 1980,
      "sw": 1981,
      "▁Sue,": 1982,
      "igh": 1983,
      "▁answ": 1984,
      "▁spo": 1985,
      "▁coll": 1986,
      "▁\"He": 1987,
      "▁ben": 1988,
      "▁sam": 1989,
      "et,": 1990,
      "▁Bell": 1991,
      "▁shop": 1992,
      "▁mouth": 1993,
      "▁pile": 1994,
      "epend": 1995,
      "▁finally": 1996,
      "▁amazing": 1997,
      "s.\"": 1998,
      "▁grew": 1999,
      "▁mail": 2000,
      "▁it!\"": 2001,
      "▁herself": 2002,
      "▁fun,": 2003,
      "▁grass": 2004,
      "▁strong.": 2005,
      "ountain": 2006,
      "▁chas": 2007,
      "▁crab": 2008,
      "▁sometimes": 2009,
      "ol": 2010,
      "▁do.\n": 2011,
      "▁years": 2012,
      "▁button": 2013,
      "▁cour": 2014,
      "▁able": 2015,
      "▁woke": 2016,
      "▁dry": 2017,
      "umber": 2018,
      "▁book.": 2019,
      "▁Thank": 2020,
      "▁robot": 2021,
      "ian": 2022,
      "▁Their": 2023,
      "igg": 2024,
      "ucce": 2025,
      "▁few": 2026,
      "▁Together": 2027,
      "▁carefully": 2028,
      "▁\"Tim,": 2029,
      "▁touc": 2030,
      "▁sudden": 2031,
      "▁eas": 2032,
      "▁man.": 2033,
      "▁wra": 2034,
      "▁Bl": 2035,
      "▁scared.\n": 2036,
      "▁forever": 2037,
      "▁fairy": 2038,
      "▁succe": 2039,
      "▁eating": 2040,
      "▁before.": 2041,
      "▁parents": 2042,
      "▁heal": 2043,
      "▁whist": 2044,
      "▁back,": 2045,
      "▁happened": 2046,
      "▁walked,": 2047,
      "▁pers": 2048,
      "▁\"You're": 2049,
      "▁touched": 2050,
      "ove": 2051,
      "▁fence": 2052,
      "▁sack": 2053,
      "▁arrived": 2054,
      "less": 2055,
      "▁prob": 2056,
      "ract": 2057,
      "▁talking": 2058,
      "▁letter": 2059,
      "lem": 2060,
      "▁bite": 2061,
      "▁Mark": 2062,
      "▁carry": 2063,
      "▁blanket": 2064,
      "▁rainbow": 2065,
      "▁problem": 2066,
      "erri": 2067,
      "ater,": 2068,
      "lephant": 2069,
      "▁done": 2070,
      "▁corn": 2071,
      "▁shook": 2072,
      "▁Ben,": 2073,
      "▁drive": 2074,
      "ogg": 2075,
      "▁hat.": 2076,
      "▁taking": 2077,
      "let": 2078,
      "▁elephant": 2079,
      "▁juice": 2080,
      "red": 2081,
      "▁ban": 2082,
      "▁spark": 2083,
      "▁town.": 2084,
      "▁grandma": 2085,
      "▁naught": 2086,
      "▁first,": 2087,
      "▁silly": 2088,
      "ined": 2089,
      "▁des": 2090,
      "▁ob": 2091,
      "▁patient": 2092,
      "▁hurt.": 2093,
      "▁puzz": 2094,
      "▁cried.": 2095,
      "▁Together,": 2096,
      "ator": 2097,
      "▁ups": 2098,
      "▁alone": 2099,
      "▁believe": 2100,
      "ful.": 2101,
      "▁coin": 2102,
      "▁cover": 2103,
      "irth": 2104,
      "▁her,": 2105,
      "▁jour": 2106,
      "▁seem": 2107,
      "▁inside.\n": 2108,
      "▁Buzz": 2109,
      "irp": 2110,
      "▁Mia's": 2111,
      "▁strange": 2112,
      "▁hand.": 2113,
      "▁cheer": 2114,
      "▁tail.": 2115,
      "▁tasty": 2116,
      "▁holding": 2117,
      "▁wonderful": 2118,
      "itch": 2119,
      "▁cir": 2120,
      "▁there,": 2121,
      "▁toy,": 2122,
      "▁\"Tom,": 2123,
      "▁part": 2124,
      "▁joke": 2125,
      "▁belong": 2126,
      "▁Lisa": 2127,
      "irthday": 2128,
      "unt": 2129,
      "▁pack": 2130,
      "▁giant": 2131,
      "▁that's": 2132,
      "▁games": 2133,
      "▁tom": 2134,
      "▁cloth": 2135,
      "ush": 2136,
      "▁most": 2137,
      "▁banan": 2138,
      "▁storm": 2139,
      "▁nodded.": 2140,
      "▁eyes.": 2141,
      "▁cray": 2142,
      "▁gentle": 2143,
      "▁With": 2144,
      "▁worried": 2145,
      "▁trou": 2146,
      "▁driver": 2147,
      "▁knock": 2148,
      "▁Jill": 2149,
      "▁magical": 2150,
      "▁birthday": 2151,
      "▁nut": 2152,
      "eter": 2153,
      "▁better.\n": 2154,
      "▁delicious": 2155,
      "▁same": 2156,
      "br": 2157,
      "emy": 2158,
      "▁bug.": 2159,
      "▁woods.": 2160,
      "▁basket": 2161,
      "▁one.": 2162,
      "▁leaves.": 2163,
      "▁heart": 2164,
      "▁splas": 2165,
      "▁add": 2166,
      "▁lock": 2167,
      "aur": 2168,
      "▁self": 2169,
      "▁done,": 2170,
      "▁towards": 2171,
      "▁ce": 2172,
      "▁med": 2173,
      "▁young": 2174,
      "▁seed": 2175,
      "▁snake": 2176,
      "▁gray": 2177,
      "▁grump": 2178,
      "▁Emma": 2179,
      "\".\n": 2180,
      "ning,": 2181,
      "▁won't": 2182,
      "ress": 2183,
      "▁inv": 2184,
      "▁Remy": 2185,
      "▁war": 2186,
      "▁you?\"": 2187,
      "alm": 2188,
      "▁things.\n": 2189,
      "▁val": 2190,
      "▁grab": 2191,
      "▁turt": 2192,
      "le,": 2193,
      "▁meet": 2194,
      "▁party.": 2195,
      "▁\"Good": 2196,
      "▁selfish": 2197,
      "▁pill": 2198,
      "at.": 2199,
      "▁yog": 2200,
      "▁faster": 2201,
      "▁colors.": 2202,
      "not": 2203,
      "▁teac": 2204,
      "▁trick": 2205,
      "▁drove": 2206,
      "▁neck": 2207,
      "▁cannot": 2208,
      "▁gone.": 2209,
      "▁instead": 2210,
      "▁ra": 2211,
      "▁more.": 2212,
      "▁boat.": 2213,
      "▁confus": 2214,
      "▁cute": 2215,
      "ub": 2216,
      "▁sug": 2217,
      "▁wasn't": 2218,
      "▁bird's": 2219,
      "▁race.": 2220,
      "▁dragon": 2221,
      "▁crayon": 2222,
      "▁ug": 2223,
      "st.": 2224,
      "▁sheep": 2225,
      "▁kitten": 2226,
      "▁eat.": 2227,
      "▁truck.": 2228,
      "ipped": 2229,
      "sy": 2230,
      "▁boot": 2231,
      "▁feels": 2232,
      "▁flower.": 2233,
      "▁teach": 2234,
      "▁disapp": 2235,
      "▁\"OK,": 2236,
      "ily,": 2237,
      "▁Anna.": 2238,
      "▁puppy": 2239,
      "▁Bella": 2240,
      "e,\"": 2241,
      "▁lem": 2242,
      "▁last": 2243,
      "▁sandw": 2244,
      "▁Amy.": 2245,
      "▁\"Of": 2246,
      "▁lonely": 2247,
      "▁mess.": 2248,
      "▁sick": 2249,
      "read": 2250,
      "▁dist": 2251,
      "▁cave": 2252,
      "▁bell": 2253,
      "▁nothing": 2254,
      "izz": 2255,
      "▁band": 2256,
      "▁stone": 2257,
      "▁forget": 2258,
      "▁pock": 2259,
      "et.\n": 2260,
      "▁ear": 2261,
      "umb": 2262,
      "▁spicy": 2263,
      "▁alone.": 2264,
      "▁Momo": 2265,
      "▁hugs": 2266,
      "▁slid": 2267,
      "▁stepped": 2268,
      "erest": 2269,
      "to": 2270,
      "▁wild": 2271,
      "y.\"\n": 2272,
      "▁no,": 2273,
      "▁hug.": 2274,
      "▁house.\n": 2275,
      "▁high.": 2276,
      "▁owner": 2277,
      "▁clothes": 2278,
      "ek": 2279,
      "▁pass": 2280,
      "ama": 2281,
      "s,\"": 2282,
      "▁interest": 2283,
      "▁rocks": 2284,
      "▁organ": 2285,
      "▁\"Sure": 2286,
      "▁bottle": 2287,
      "ever": 2288,
      "▁sal": 2289,
      "oose": 2290,
      "▁together!\"": 2291,
      "▁them,": 2292,
      "▁backy": 2293,
      "▁nod": 2294,
      "▁That's": 2295,
      "▁teacher": 2296,
      "ward": 2297,
      "▁bark": 2298,
      "▁lucky": 2299,
      "▁mil": 2300,
      "ugg": 2301,
      "▁sea": 2302,
      "▁out,": 2303,
      "▁spoon": 2304,
      "▁smooth": 2305,
      "oc": 2306,
      "▁pop": 2307,
      "▁hang": 2308,
      "▁Max's": 2309,
      "▁clever": 2310,
      "▁explor": 2311,
      "▁Whiskers": 2312,
      "\".": 2313,
      "omet": 2314,
      "▁sharp": 2315,
      "▁rec": 2316,
      "▁around,": 2317,
      "▁huge": 2318,
      "▁grate": 2319,
      "▁appear": 2320,
      "▁cookies": 2321,
      "▁lesson.": 2322,
      "f.": 2323,
      "▁sour": 2324,
      "ater": 2325,
      "amp": 2326,
      "▁store.": 2327,
      "▁shelf": 2328,
      "▁peace": 2329,
      "▁shoes": 2330,
      "▁Leo": 2331,
      "▁Grandma": 2332,
      "▁Tr": 2333,
      "▁fle": 2334,
      "▁mark": 2335,
      "▁playing.": 2336,
      "▁doll.": 2337,
      "▁work.": 2338,
      "▁shouted": 2339,
      "▁wrong.": 2340,
      "▁horse": 2341,
      "den": 2342,
      "▁mach": 2343,
      "▁shiny.": 2344,
      "▁fold": 2345,
      "▁hidden": 2346,
      "mp": 2347,
      "▁pan": 2348,
      "▁\"R": 2349,
      "bble": 2350,
      "▁explain": 2351,
      "▁missed": 2352,
      "▁lake": 2353,
      "▁number": 2354,
      "▁go.": 2355,
      "▁rain.": 2356,
      "▁boss": 2357,
      "▁sometimes,": 2358,
      "▁wheel": 2359,
      "▁welcome,": 2360,
      "live": 2361,
      "▁pleas": 2362,
      "rill": 2363,
      "▁lot.": 2364,
      "▁comes": 2365,
      "▁window.": 2366,
      "▁stick.": 2367,
      "▁Daddy": 2368,
      "▁voice.": 2369,
      "▁farmer": 2370,
      "▁wings": 2371,
      "▁spoil": 2372,
      "▁ser": 2373,
      "▁ash": 2374,
      "▁Sam's": 2375,
      "▁special.": 2376,
      "▁finish": 2377,
      "▁safe.\n": 2378,
      "▁else": 2379,
      "▁mous": 2380,
      "▁mom's": 2381,
      "▁back.\n": 2382,
      "▁\"Lily,": 2383,
      "▁room,": 2384,
      "▁slowly": 2385,
      "ge.": 2386,
      "▁won": 2387,
      "▁Oll": 2388,
      "▁spid": 2389,
      "▁fly.": 2390,
      "▁sne": 2391,
      "▁imag": 2392,
      "▁bread": 2393,
      "▁Chirp": 2394,
      "▁TV": 2395,
      "▁save": 2396,
      "▁in.": 2397,
      "▁oven": 2398,
      "stion": 2399,
      "▁onto": 2400,
      "▁rope": 2401,
      "▁cars.": 2402,
      "▁drum": 2403,
      "▁hiding": 2404,
      "▁song.": 2405,
      "▁chased": 2406,
      "▁av": 2407,
      "▁cheered": 2408,
      "▁place.": 2409,
      "ling": 2410,
      "▁Later,": 2411,
      "▁lift": 2412,
      "▁takes": 2413,
      "▁\"St": 2414,
      "▁drew": 2415,
      "▁agreed,": 2416,
      "▁candy": 2417,
      "▁pin": 2418,
      "▁mot": 2419,
      "▁law": 2420,
      "▁breat": 2421,
      "▁landed": 2422,
      "▁spray": 2423,
      "▁Blue": 2424,
      "ina": 2425,
      "▁shirt": 2426,
      "▁sea.": 2427,
      "▁spe": 2428,
      "▁brid": 2429,
      "▁puts": 2430,
      "▁watching": 2431,
      "▁plan.": 2432,
      "▁right.": 2433,
      "▁path": 2434,
      "box": 2435,
      "▁snowman": 2436,
      "wel": 2437,
      "irr": 2438,
      "▁though": 2439,
      "▁step": 2440,
      "▁ret": 2441,
      "ular": 2442,
      "▁chick": 2443,
      "▁whole": 2444,
      "▁now.": 2445,
      "▁brave.": 2446,
      "▁across": 2447,
      "▁question": 2448,
      "▁puddle": 2449,
      "▁ba": 2450,
      "▁card": 2451,
      "▁gather": 2452,
      "▁it?\"": 2453,
      "unny.": 2454,
      "▁up.\n": 2455,
      "▁together.\"": 2456,
      "▁wall.": 2457,
      "ert": 2458,
      "▁along": 2459,
      "▁grumpy": 2460,
      "▁lemon": 2461,
      "ier": 2462,
      "my,": 2463,
      "▁car,": 2464,
      "▁curious.": 2465,
      "scap": 2466,
      "▁ent": 2467,
      "▁bow": 2468,
      "▁kids.": 2469,
      "▁craw": 2470,
      "▁came.": 2471,
      "ball": 2472,
      "▁waff": 2473,
      "▁it!": 2474,
      "▁thin": 2475,
      "▁myster": 2476,
      "issor": 2477,
      "▁jewel": 2478,
      "▁return": 2479,
      "▁bought": 2480,
      "▁calm": 2481,
      "▁shy": 2482,
      "▁kite": 2483,
      "▁bird.\n": 2484,
      "▁scissor": 2485,
      "▁cart": 2486,
      "age,": 2487,
      "▁trees.": 2488,
      "▁Lucy's": 2489,
      "▁foot": 2490,
      "▁sound.": 2491,
      "ale": 2492,
      "▁goes": 2493,
      "▁scre": 2494,
      "▁smiles": 2495,
      "▁hope": 2496,
      "▁mouth.": 2497,
      "ied": 2498,
      "▁helpful": 2499,
      "▁Why": 2500,
      "▁carried": 2501,
      "▁van": 2502,
      "▁crying": 2503,
      "▁lay": 2504,
      "▁shake": 2505,
      "▁jell": 2506,
      "pect": 2507,
      "▁books.": 2508,
      "▁Bunny": 2509,
      "▁Fred": 2510,
      "▁kind.": 2511,
      "▁supp": 2512,
      "▁chocol": 2513,
      "▁ugly": 2514,
      "bor": 2515,
      "flower": 2516,
      "erv": 2517,
      "pping": 2518,
      "▁sock": 2519,
      "rag": 2520,
      "▁busy": 2521,
      "▁castle.": 2522,
      "▁branch": 2523,
      "▁\"Hey,": 2524,
      "mer": 2525,
      "▁tid": 2526,
      "▁such": 2527,
      "▁wide": 2528,
      "▁St": 2529,
      "▁space": 2530,
      "ive.": 2531,
      "▁gives": 2532,
      "▁saved": 2533,
      "▁said:": 2534,
      "oop": 2535,
      "▁If": 2536,
      "▁Dogg": 2537,
      "▁shining": 2538,
      "▁\"My": 2539,
      "▁tear": 2540,
      "▁plane": 2541,
      "▁match": 2542,
      "▁\"Sure,": 2543,
      "aff": 2544,
      "▁nerv": 2545,
      "▁Mum": 2546,
      "▁\"Wow": 2547,
      "▁comfort": 2548,
      "▁tea": 2549,
      "ak.": 2550,
      "▁chew": 2551,
      "▁frog.": 2552,
      "▁okay.": 2553,
      "▁cap": 2554,
      "▁map": 2555,
      "▁stack": 2556,
      "▁toys.\n": 2557,
      "▁worm": 2558,
      "▁smiled,": 2559,
      "▁Cat": 2560,
      "▁clock": 2561,
      "▁careful,": 2562,
      "ize": 2563,
      "▁morning,": 2564,
      "▁money": 2565,
      "▁journe": 2566,
      "▁wom": 2567,
      "▁fis": 2568,
      "▁fing": 2569,
      "▁way,": 2570,
      "▁hell": 2571,
      "▁sol": 2572,
      "▁kis": 2573,
      "▁working": 2574,
      "▁sunflower": 2575,
      "▁know.": 2576,
      "▁trust": 2577,
      "▁excited.\n": 2578,
      "▁glow": 2579,
      "▁promise": 2580,
      "▁woman": 2581,
      "▁ign": 2582,
      "▁act": 2583,
      "▁hum": 2584,
      "▁way.": 2585,
      "▁lar": 2586,
      "▁late.": 2587,
      "▁rad": 2588,
      "▁Mama": 2589,
      "oph": 2590,
      "▁smiled.\n": 2591,
      "▁know,": 2592,
      "▁people.": 2593,
      "▁forgive": 2594,
      "▁bucket": 2595,
      "▁grateful": 2596,
      "▁wash": 2597,
      "▁gun": 2598,
      "▁me.\"": 2599,
      "▁naughty": 2600,
      "▁di": 2601,
      "▁cou": 2602,
      "▁trees,": 2603,
      "▁jump,": 2604,
      "▁Come": 2605,
      "▁share.": 2606,
      "▁powerful": 2607,
      "▁Somet": 2608,
      "en.": 2609,
      "pper": 2610,
      "e.\"\n": 2611,
      "▁lick": 2612,
      "▁gold": 2613,
      "▁roar": 2614,
      "▁seek": 2615,
      "▁write": 2616,
      "▁zoom": 2617,
      "▁lunch": 2618,
      "▁cher": 2619,
      "ato": 2620,
      "▁rare": 2621,
      "▁sold": 2622,
      "▁neigh": 2623,
      "▁Ben's": 2624,
      "▁laugh.": 2625,
      "▁stories": 2626,
      "▁pieces": 2627,
      "▁swimm": 2628,
      "▁wearing": 2629,
      "room.": 2630,
      "▁cheese": 2631,
      "▁wis": 2632,
      "▁maybe": 2633,
      "▁I'll": 2634,
      "illy.": 2635,
      "▁asham": 2636,
      "▁\"Stop": 2637,
      "▁pract": 2638,
      "ay.": 2639,
      "▁feather": 2640,
      "▁much.\n": 2641,
      "▁garden,": 2642,
      "▁apples": 2643,
      "▁cold.": 2644,
      "▁nest.": 2645,
      "▁\"Please": 2646,
      "▁tie": 2647,
      "▁rac": 2648,
      "ager": 2649,
      "▁Spot's": 2650,
      "▁down.\n": 2651,
      "▁fast,": 2652,
      "▁\"Mom": 2653,
      "▁smile.\n": 2654,
      "▁deer": 2655,
      "▁ducks": 2656,
      "▁smelled": 2657,
      "▁please?\"": 2658,
      "▁invit": 2659,
      "▁pool": 2660,
      "▁mine": 2661,
      "elp": 2662,
      "▁dad,": 2663,
      "▁asks.\n": 2664,
      "▁tomor": 2665,
      "▁banana": 2666,
      "▁turtle": 2667,
      "ma.": 2668,
      "wor": 2669,
      "▁sur": 2670,
      "▁it?\"\n": 2671,
      "▁days": 2672,
      "▁Al": 2673,
      "▁me?\"\n": 2674,
      "▁prot": 2675,
      "▁change": 2676,
      "▁group": 2677,
      "▁impress": 2678,
      "▁wondered": 2679,
      "▁police": 2680,
      "lease,": 2681,
      "▁motor": 2682,
      "ble.": 2683,
      "▁wip": 2684,
      "▁play,": 2685,
      "▁all.": 2686,
      "▁toy.\n": 2687,
      "▁Jer": 2688,
      "▁waiting": 2689,
      "▁adm": 2690,
      "eze": 2691,
      "▁by.": 2692,
      "▁depend": 2693,
      "▁mountain": 2694,
      "▁stret": 2695,
      "▁together.\"\n": 2696,
      "▁others.": 2697,
      "▁thing.": 2698,
      "▁Go": 2699,
      "▁zoo": 2700,
      "▁words": 2701,
      "▁bounce": 2702,
      "est": 2703,
      "up": 2704,
      "▁mirr": 2705,
      "▁eager": 2706,
      "▁reg": 2707,
      "▁me!\"": 2708,
      "▁sky.\n": 2709,
      "▁mov": 2710,
      "▁flowers,": 2711,
      "▁pretended": 2712,
      "▁Jimmy": 2713,
      "▁forever.\n": 2714,
      "▁seemed": 2715,
      "▁Ollie": 2716,
      "▁mirror": 2717,
      "kin": 2718,
      "ss,": 2719,
      "▁af": 2720,
      "▁pri": 2721,
      "▁Some": 2722,
      "▁shark": 2723,
      "▁box.\n": 2724,
      "▁\"Help": 2725,
      "▁\"Be": 2726,
      "▁march": 2727,
      "▁muff": 2728,
      "▁string": 2729,
      "▁eng": 2730,
      "▁Kitty.": 2731,
      "▁himself.": 2732,
      "ost": 2733,
      "▁cross": 2734,
      "▁Tim.\n": 2735,
      "▁\"Come": 2736,
      "▁Fluffy.": 2737,
      "▁trip": 2738,
      "▁sounds": 2739,
      "▁river.": 2740,
      "rell": 2741,
      "▁dig": 2742,
      "▁mind": 2743,
      "ers.": 2744,
      "▁umb": 2745,
      "▁jam": 2746,
      "raid": 2747,
      "▁decor": 2748,
      "▁water.\n": 2749,
      "▁moon": 2750,
      "▁parrot": 2751,
      "▁fixed": 2752,
      "▁umbrell": 2753,
      "pped.": 2754,
      "ult": 2755,
      "▁Don't": 2756,
      "▁crying.": 2757,
      "▁bush": 2758,
      "▁bag.": 2759,
      "▁shouted,": 2760,
      "▁dirty.": 2761,
      "▁circle": 2762,
      "▁afraid": 2763,
      "▁How": 2764,
      "ried.": 2765,
      "una": 2766,
      "▁sad?\"": 2767,
      "▁clap": 2768,
      "ic.": 2769,
      "▁wouldn't": 2770,
      "▁cry.\n": 2771,
      "▁paper.": 2772,
      "▁matter": 2773,
      "▁relie": 2774,
      "▁puzzle": 2775,
      "▁bal": 2776,
      "▁gen": 2777,
      "▁you,\"": 2778,
      "▁Tom.\n": 2779,
      "▁daddy": 2780,
      "▁Inside,": 2781,
      "▁teet": 2782,
      "▁outside.\n": 2783,
      "ventu": 2784,
      "▁dress.": 2785,
      "▁painted": 2786,
      "▁move.": 2787,
      "▁drawing": 2788,
      "▁pointed": 2789,
      "▁success": 2790,
      "▁splashed": 2791,
      "sp": 2792,
      "▁dull": 2793,
      "▁escap": 2794,
      "▁dog.\n": 2795,
      "▁prun": 2796,
      "▁pear": 2797,
      "▁crown": 2798,
      "▁taste": 2799,
      "▁ants": 2800,
      "▁knocked": 2801,
      "pid": 2802,
      "uce": 2803,
      "▁sque": 2804,
      "▁it!\"\n": 2805,
      "▁lif": 2806,
      "▁drank": 2807,
      "▁farm.": 2808,
      "▁amazed": 2809,
      "▁stupid": 2810,
      "▁person": 2811,
      "▁bossy": 2812,
      "▁bald": 2813,
      "▁large": 2814,
      "rob": 2815,
      "▁aunt": 2816,
      "▁these": 2817,
      "▁on.": 2818,
      "asp": 2819,
      "ssed": 2820,
      "▁\"Yes": 2821,
      "▁rub": 2822,
      "▁smelly": 2823,
      "▁bench": 2824,
      "▁course,": 2825,
      "▁mouse.": 2826,
      "▁pour": 2827,
      "▁stood": 2828,
      "▁emb": 2829,
      "▁Bird": 2830,
      "el.": 2831,
      "▁fron": 2832,
      "▁Spot,": 2833,
      "▁fier": 2834,
      "▁first.": 2835,
      "▁moment.": 2836,
      "▁stubb": 2837,
      "▁princess": 2838,
      "▁Ella": 2839,
      "▁peaceful": 2840,
      "aw": 2841,
      "▁bed,": 2842,
      "lev": 2843,
      "▁stat": 2844,
      "▁birds.": 2845,
      "▁rod": 2846,
      "▁longer": 2847,
      "▁swings": 2848,
      "▁whistle": 2849,
      "▁gener": 2850,
      "ches": 2851,
      "arra": 2852,
      "▁noteb": 2853,
      "▁too!\"": 2854,
      "▁stars": 2855,
      "▁car.\n": 2856,
      "▁measure": 2857,
      "▁flag": 2858,
      "▁singing": 2859,
      "▁dance.": 2860,
      "▁print": 2861,
      "▁incred": 2862,
      "▁embarra": 2863,
      "▁fierce": 2864,
      "▁notebook": 2865,
      "▁fil": 2866,
      "imp": 2867,
      "▁ring": 2868,
      "elve": 2869,
      "▁search": 2870,
      "▁milk": 2871,
      "▁jelly": 2872,
      "▁Sometim": 2873,
      "we": 2874,
      "en,": 2875,
      "e.\"": 2876,
      "▁road.": 2877,
      "▁frust": 2878,
      "▁outside,": 2879,
      "▁triang": 2880,
      "▁adventure.": 2881,
      "▁relax": 2882,
      "▁searched": 2883,
      "▁cele": 2884,
      "▁frag": 2885,
      "▁mic": 2886,
      "ade": 2887,
      "▁worried.": 2888,
      "▁flut": 2889,
      "▁run,": 2890,
      "▁clear": 2891,
      "▁splash": 2892,
      "▁Jenny": 2893,
      "port": 2894,
      "s!\"": 2895,
      "▁bicy": 2896,
      "▁that,": 2897,
      "▁fun!\"": 2898,
      "▁feed": 2899,
      "▁sword": 2900,
      "ion.": 2901,
      "▁square": 2902,
      "▁cookie": 2903,
      "▁tries": 2904,
      "▁mighty": 2905,
      "▁pres": 2906,
      "▁front": 2907,
      "cil": 2908,
      "▁'": 2909,
      "▁fake": 2910,
      "▁hero": 2911,
      "▁stri": 2912,
      "▁stuff": 2913,
      "unk": 2914,
      "ally.": 2915,
      "▁My": 2916,
      "▁whis": 2917,
      "▁jog": 2918,
      "ummy.": 2919,
      "▁something.": 2920,
      "▁fear": 2921,
      "▁tower.": 2922,
      "▁ladder": 2923,
      "▁top.": 2924,
      "▁pencil": 2925,
      "▁idea.\n": 2926,
      "▁air.": 2927,
      "▁twins": 2928,
      "▁dangerous": 2929,
      "▁healthy": 2930,
      "▁True": 2931,
      "work": 2932,
      "▁fragile": 2933,
      "ud": 2934,
      "▁U": 2935,
      "▁Man": 2936,
      "ly.\n": 2937,
      "▁Jan": 2938,
      "▁nose": 2939,
      "▁faster.": 2940,
      "▁talk.": 2941,
      "osaur": 2942,
      "▁chicken": 2943,
      "▁fisher": 2944,
      "▁frustrat": 2945,
      "▁mel": 2946,
      "▁Lily.\n": 2947,
      "▁Ducky": 2948,
      "aken": 2949,
      "▁No": 2950,
      "▁loud.": 2951,
      "▁talk!": 2952,
      "▁rude": 2953,
      "▁relieved": 2954,
      "selve": 2955,
      "▁washed": 2956,
      "▁with.\n": 2957,
      "▁stir": 2958,
      "▁lazy": 2959,
      "▁slide,": 2960,
      "▁ord": 2961,
      "andy": 2962,
      "ange.": 2963,
      "▁food,": 2964,
      "▁veget": 2965,
      "▁anything.": 2966,
      "▁cact": 2967,
      "▁spider": 2968,
      "ss.\n": 2969,
      "▁bitt": 2970,
      "▁cab": 2971,
      "▁was.\n": 2972,
      "▁go,": 2973,
      "▁lab": 2974,
      "▁\"Who": 2975,
      "▁loves": 2976,
      "▁proud.": 2977,
      "ip.": 2978,
      "▁\"What's": 2979,
      "▁job,": 2980,
      "▁Zoom": 2981,
      "▁dinner": 2982,
      "▁kicked": 2983,
      "▁answer": 2984,
      "▁protect": 2985,
      "▁stubborn": 2986,
      "▁taken": 2987,
      "▁bunny.": 2988,
      "▁thick": 2989,
      "▁that?\"": 2990,
      "▁log": 2991,
      "▁seat": 2992,
      "▁no.": 2993,
      "▁gets": 2994,
      "gest": 2995,
      "▁dinosaur": 2996,
      "▁creative": 2997,
      "▁respect": 2998,
      "▁else.": 2999,
      "▁suddenly": 3000,
      "▁fisherman": 3001,
      "▁taught": 3002,
      "▁burn": 3003,
      "ous.\n": 3004,
      "▁was,": 3005,
      "igin": 3006,
      "▁water,": 3007,
      "▁sticks": 3008,
      "▁drop": 3009,
      "▁interesting": 3010,
      "▁dependable": 3011,
      "▁3": 3012,
      "ous,": 3013,
      "▁rat": 3014,
      "▁clown": 3015,
      "▁chal": 3016,
      "▁origin": 3017,
      "▁\"Max": 3018,
      "▁cleaned": 3019,
      "day,": 3020,
      "▁before.\n": 3021,
      "▁me.\"\n": 3022,
      "▁understood": 3023,
      "▁incredible": 3024,
      "cle.": 3025,
      "pa": 3026,
      "▁Tina": 3027,
      "▁daught": 3028,
      "▁Sally.": 3029,
      "▁oce": 3030,
      "▁not.": 3031,
      "▁asleep": 3032,
      "▁could.": 3033,
      "▁become": 3034,
      "▁Amy's": 3035,
      "▁warm.": 3036,
      "▁chocolate": 3037,
      "▁motorcy": 3038,
      "▁vegetable": 3039,
      "▁ocean": 3040,
      "cient": 3041,
      "▁hur": 3042,
      "▁Tom!": 3043,
      "▁yourself": 3044,
      "▁surprise.": 3045,
      "▁team": 3046,
      "▁bugs": 3047,
      "ache": 3048,
      "▁store,": 3049,
      "▁tasted": 3050,
      "▁jeal": 3051,
      "▁creature": 3052,
      "▁fancy": 3053,
      "▁sandwich": 3054,
      "oll": 3055,
      "▁ap": 3056,
      "▁berri": 3057,
      "▁wand": 3058,
      "▁gigg": 3059,
      "iger": 3060,
      "▁ancient": 3061,
      "▁lead": 3062,
      "▁scare": 3063,
      "▁others.\n": 3064,
      "▁skull": 3065,
      "▁rocket": 3066,
      "▁lovely": 3067,
      "▁joy": 3068,
      "▁dolls": 3069,
      "▁fruit.": 3070,
      "▁acorn": 3071,
      "▁twins.": 3072,
      "▁bounc": 3073,
      "▁barn": 3074,
      "▁net": 3075,
      "▁ham": 3076,
      "▁soap": 3077,
      "▁finding": 3078,
      "pens": 3079,
      "▁poor": 3080,
      "▁trump": 3081,
      "▁surprise,": 3082,
      "▁sky,": 3083,
      "▁shapes": 3084,
      "▁toast": 3085,
      "▁har": 3086,
      "▁cro": 3087,
      "▁asking": 3088,
      "▁expens": 3089,
      "▁smiles.": 3090,
      "▁soon.": 3091,
      "▁messy": 3092,
      "▁honey": 3093,
      "▁well.": 3094,
      "▁covered": 3095,
      "▁neighbor": 3096,
      "dy.": 3097,
      "ey": 3098,
      "▁gi": 3099,
      "▁life": 3100,
      "▁which": 3101,
      "▁Will": 3102,
      "▁spread": 3103,
      "▁small.": 3104,
      "▁scarf": 3105,
      "▁chase": 3106,
      "▁door,": 3107,
      "▁dest": 3108,
      "▁sand.": 3109,
      "▁games.": 3110,
      "▁pieces.": 3111,
      "▁minut": 3112,
      "▁Chirpy": 3113,
      "▁muffin": 3114,
      "la": 3115,
      "▁tooth": 3116,
      "▁pay": 3117,
      "▁stra": 3118,
      "▁Bear": 3119,
      "▁looked,": 3120,
      "▁bloom": 3121,
      "▁room.\n": 3122,
      "▁Pe": 3123,
      "▁face.\n": 3124,
      "▁soon,": 3125,
      "▁disco": 3126,
      "▁\"Oh,": 3127,
      "▁mixed": 3128,
      "▁wrap": 3129,
      "ocad": 3130,
      "▁machine": 3131,
      "dge": 3132,
      "▁wet.": 3133,
      "▁wake": 3134,
      "orry,": 3135,
      "▁\"F": 3136,
      "▁yarn": 3137,
      "▁yummy.": 3138,
      "▁libr": 3139,
      "▁moms": 3140,
      "▁too?\"": 3141,
      "▁frown": 3142,
      "▁track": 3143,
      "▁twist": 3144,
      "bby": 3145,
      "▁forest.\n": 3146,
      "▁woods": 3147,
      "▁party,": 3148,
      "▁branch.": 3149,
      "▁mistake": 3150,
      "▁backyard.": 3151,
      "▁solve": 3152,
      "fic": 3153,
      "▁bone": 3154,
      "▁pur": 3155,
      "▁is:": 3156,
      "usu": 3157,
      "▁Bobby": 3158,
      "▁unl": 3159,
      "▁unusu": 3160,
      "▁long,": 3161,
      "▁agreed.": 3162,
      "▁diffic": 3163,
      "▁arms": 3164,
      "▁medic": 3165,
      "▁value": 3166,
      "▁appeared": 3167,
      "rilliant": 3168,
      "▁avocad": 3169,
      "▁priz": 3170,
      "▁\"Max,": 3171,
      "ose": 3172,
      "▁icy": 3173,
      "▁brilliant": 3174,
      "▁rag": 3175,
      "▁swing.": 3176,
      "▁tried,": 3177,
      "▁mean.": 3178,
      "▁crack": 3179,
      "▁broken.": 3180,
      "▁hair.": 3181,
      "▁mush": 3182,
      "▁perform": 3183,
      "▁gently": 3184,
      "▁yogurt": 3185,
      "▁\"Mommy,": 3186,
      "nes": 3187,
      "▁terri": 3188,
      "▁pir": 3189,
      "▁inside,": 3190,
      "▁Tim!\"": 3191,
      "▁that.": 3192,
      "▁jet": 3193,
      "▁road": 3194,
      "▁rose": 3195,
      "▁sunsh": 3196,
      "▁\"No": 3197,
      "▁noisy": 3198,
      "▁\"Please,": 3199,
      "▁mysterious": 3200,
      "▁\"Wow!": 3201,
      "▁balance": 3202,
      "▁original": 3203,
      "▁dug": 3204,
      "▁thirst": 3205,
      "oof": 3206,
      "▁rough": 3207,
      "▁anx": 3208,
      "▁tool": 3209,
      "▁did.": 3210,
      "▁clum": 3211,
      "▁uni": 3212,
      "▁glove": 3213,
      "izzy": 3214,
      "▁picn": 3215,
      "▁float": 3216,
      "▁spotted": 3217,
      "▁miser": 3218,
      "▁fence.": 3219,
      "▁Many": 3220,
      "ning.": 3221,
      "▁tag": 3222,
      "▁Tiny": 3223,
      "▁you!\"\n": 3224,
      "▁things,": 3225,
      "▁blue.": 3226,
      "▁Dan": 3227,
      "y,\"": 3228,
      "ipop": 3229,
      "▁fire.": 3230,
      "▁night.": 3231,
      "ation.": 3232,
      "▁relia": 3233,
      "▁upset": 3234,
      "▁disappear": 3235,
      "▁tidy": 3236,
      "▁tomorrow": 3237,
      "▁Jerry": 3238,
      "iv": 3239,
      "ara.": 3240,
      "ote": 3241,
      "unn": 3242,
      "▁loll": 3243,
      "▁dog's": 3244,
      "▁out.\n": 3245,
      "▁\"Now": 3246,
      "▁colour": 3247,
      "▁dark.": 3248,
      "▁clothes.": 3249,
      "▁ignor": 3250,
      "▁cabin": 3251,
      "come": 3252,
      "ground": 3253,
      "most": 3254,
      "▁ind": 3255,
      "▁fool": 3256,
      "art.": 3257,
      "▁gem": 3258,
      "▁goose": 3259,
      "▁plate": 3260,
      "▁gloom": 3261,
      "▁lost.": 3262,
      "▁hears": 3263,
      "▁cream.": 3264,
      "▁easy": 3265,
      "▁record": 3266,
      "▁swimming": 3267,
      "▁lollipop": 3268,
      "ious.": 3269,
      "▁Tob": 3270,
      "▁dish": 3271,
      "arl": 3272,
      "atter": 3273,
      "▁emp": 3274,
      "▁shock": 3275,
      "▁Sammy": 3276,
      "ellig": 3277,
      "▁almost": 3278,
      "▁more.\n": 3279,
      "▁nice,": 3280,
      "▁squirrel.": 3281,
      "▁disg": 3282,
      "▁building": 3283,
      "▁tape": 3284,
      "▁school.": 3285,
      "▁shadow": 3286,
      "▁flex": 3287,
      "▁empty": 3288,
      "land": 3289,
      "ighed": 3290,
      "▁lose": 3291,
      "▁no!": 3292,
      "▁worry": 3293,
      "▁sun.\n": 3294,
      "▁intellig": 3295,
      "▁anyone": 3296,
      "▁Even": 3297,
      "▁\"Here": 3298,
      "▁noises": 3299,
      "▁rich": 3300,
      "▁chair.": 3301,
      "▁doing?\"": 3302,
      "▁furry": 3303,
      "▁queen": 3304,
      "▁street.": 3305,
      "▁hello": 3306,
      "old": 3307,
      "pack": 3308,
      "▁horn": 3309,
      "▁wander": 3310,
      "▁olive": 3311,
      "▁yes,": 3312,
      "▁too!": 3313,
      "▁island": 3314,
      "▁carp": 3315,
      "▁Please": 3316,
      "▁\"Sorry,": 3317,
      "▁field.": 3318,
      "▁pillow": 3319,
      "▁exploring": 3320,
      "▁disgust": 3321,
      "apped": 3322,
      "ned": 3323,
      "ying": 3324,
      "▁pant": 3325,
      "▁mop": 3326,
      "erp": 3327,
      "▁note": 3328,
      "▁Lily!": 3329,
      "▁fun!\"\n": 3330,
      "▁Benny": 3331,
      "▁others,": 3332,
      "▁cost": 3333,
      "▁charm": 3334,
      "▁bubble": 3335,
      "▁Polly": 3336,
      "▁free": 3337,
      "▁sister,": 3338,
      "▁point": 3339,
      "▁mud.": 3340,
      "▁foolish": 3341,
      "ness": 3342,
      "▁four": 3343,
      "erop": 3344,
      "▁gho": 3345,
      "▁oper": 3346,
      "▁weak": 3347,
      "▁exam": 3348,
      "▁apple.": 3349,
      "less.": 3350,
      "▁sleep.": 3351,
      "▁hot.": 3352,
      "▁delicate": 3353,
      "▁borrow": 3354,
      "▁village,": 3355,
      "▁wrapped": 3356,
      "▁sugar": 3357,
      "▁waffle": 3358,
      "▁Doggy": 3359,
      "▁independ": 3360,
      "par": 3361,
      "s!": 3362,
      "▁aerop": 3363,
      "igator": 3364,
      "owed": 3365,
      "▁stair": 3366,
      "▁eld": 3367,
      "▁too.\"\n": 3368,
      "ope": 3369,
      "▁no!\"": 3370,
      "▁brush": 3371,
      "▁pray": 3372,
      "▁surprised,": 3373,
      "▁happened.\n": 3374,
      "▁quar": 3375,
      "▁remind": 3376,
      "▁wolf": 3377,
      "▁thankful": 3378,
      "▁honest": 3379,
      "▁bench.": 3380,
      "▁cartoon": 3381,
      "▁engine": 3382,
      "▁unlock": 3383,
      "▁aeropl": 3384,
      "ym": 3385,
      "▁por": 3386,
      "▁alligator": 3387,
      "▁girl,": 3388,
      "▁Your": 3389,
      "▁open.": 3390,
      "▁rock,": 3391,
      "▁hard,": 3392,
      "▁behave": 3393,
      "▁rest.": 3394,
      "▁adventure.\n": 3395,
      "▁hairy": 3396,
      "▁joined": 3397,
      "▁dinner.": 3398,
      "▁standing": 3399,
      "▁quarrel": 3400,
      "▁tied": 3401,
      "▁suit": 3402,
      "▁bake": 3403,
      "▁toug": 3404,
      "▁fountain": 3405,
      "▁pump": 3406,
      "▁mill": 3407,
      "atient": 3408,
      "▁thoughtful": 3409,
      "▁bear,": 3410,
      "▁brace": 3411,
      "▁jolly": 3412,
      "▁bush.": 3413,
      "▁polite": 3414,
      "▁phone": 3415,
      "▁destro": 3416,
      "▁elder": 3417,
      "b.": 3418,
      "▁tick": 3419,
      "▁nail": 3420,
      "ilt": 3421,
      "y.\"": 3422,
      "▁birds,": 3423,
      "▁leop": 3424,
      "▁other,": 3425,
      "▁knowing": 3426,
      "▁picks": 3427,
      "▁clean.": 3428,
      "▁impatient": 3429,
      "▁top,": 3430,
      "▁batter": 3431,
      "▁barber": 3432,
      "▁village": 3433,
      "▁obed": 3434,
      "▁Sometimes": 3435,
      "▁unusual": 3436,
      "kn": 3437,
      "ser": 3438,
      "▁Sara.": 3439,
      "▁half": 3440,
      "▁us.": 3441,
      "▁stream": 3442,
      "▁Mummy": 3443,
      "▁Miss": 3444,
      "▁sell": 3445,
      "▁cat.\n": 3446,
      "ice.": 3447,
      "▁blow": 3448,
      "▁jumping": 3449,
      "▁famous": 3450,
      "▁asks": 3451,
      "▁monst": 3452,
      "▁sleepy": 3453,
      "▁lunch.": 3454,
      "▁breath": 3455,
      "▁obedient": 3456,
      "▁pun": 3457,
      "▁pian": 3458,
      "▁pizz": 3459,
      "▁maz": 3460,
      "anut": 3461,
      "▁weal": 3462,
      "▁there.\n": 3463,
      "▁jack": 3464,
      "▁class": 3465,
      "▁spent": 3466,
      "ighten": 3467,
      "▁everyone.": 3468,
      "▁unkn": 3469,
      "▁peanut": 3470,
      "▁slipped": 3471,
      "▁adventures": 3472,
      "▁everywhere.": 3473,
      "▁bowl.": 3474,
      "▁corner": 3475,
      "▁comfortable": 3476,
      "ie,": 3477,
      "▁tur": 3478,
      "ot,": 3479,
      "▁Mary": 3480,
      "▁caterp": 3481,
      "▁mad.": 3482,
      "iff": 3483,
      "▁comet": 3484,
      "▁enc": 3485,
      "▁Rob": 3486,
      "▁closer,": 3487,
      "▁guil": 3488,
      "▁elderly": 3489,
      "▁unknown": 3490,
      "▁caterpill": 3491,
      "und": 3492,
      "▁sing.": 3493,
      "▁wire": 3494,
      "▁norm": 3495,
      "▁weird": 3496,
      "ely": 3497,
      "▁helm": 3498,
      "▁funny.": 3499,
      "▁needs": 3500,
      "▁Instead": 3501,
      "▁food.\n": 3502,
      "▁dead": 3503,
      "▁shouted.": 3504,
      "assion": 3505,
      "▁fighting": 3506,
      "▁heavy.": 3507,
      "▁boring": 3508,
      "▁screamed": 3509,
      "▁daughter": 3510,
      "can": 3511,
      "▁witch": 3512,
      "▁fat": 3513,
      "am,": 3514,
      "ries": 3515,
      "▁you're": 3516,
      "▁kiss": 3517,
      "▁bird!": 3518,
      "▁all.\n": 3519,
      "▁loy": 3520,
      "▁fun!": 3521,
      "▁frighten": 3522,
      "▁built": 3523,
      "▁cookies.": 3524,
      "▁Bobo.": 3525,
      "▁veil": 3526,
      "▁comput": 3527,
      "▁compassion": 3528,
      "▁scissors": 3529,
      "▁nervous": 3530,
      "▁discover": 3531,
      "▁fig": 3532,
      "ity": 3533,
      "▁mid": 3534,
      "▁guit": 3535,
      "▁rug": 3536,
      "▁Luna": 3537,
      "▁Bet": 3538,
      "▁\"If": 3539,
      "▁boy,": 3540,
      "▁\"How": 3541,
      "▁\"Me": 3542,
      "▁arg": 3543,
      "▁bottom": 3544,
      "▁collect": 3545,
      "▁difficult": 3546,
      "▁unique": 3547,
      "▁reliable": 3548,
      "▁costum": 3549,
      "▁charming": 3550,
      "cut": 3551,
      "der.": 3552,
      "ray": 3553,
      "▁bul": 3554,
      "▁hour": 3555,
      "▁hoop": 3556,
      "▁inse": 3557,
      "▁Bill": 3558,
      "▁frid": 3559,
      "▁scatter": 3560,
      "▁care.": 3561,
      "▁univer": 3562,
      "▁sort": 3563,
      "▁old.": 3564,
      "▁glass": 3565,
      "▁check": 3566,
      "▁cheap": 3567,
      "▁Jack.": 3568,
      "▁stop.": 3569,
      "▁acce": 3570,
      "▁world.": 3571,
      "▁compet": 3572,
      "▁tight.": 3573,
      "▁beach.": 3574,
      "▁arrived,": 3575,
      "▁statue": 3576,
      "light": 3577,
      "▁tank": 3578,
      "▁bump": 3579,
      "ery": 3580,
      "anged": 3581,
      "▁big.": 3582,
      "▁ref": 3583,
      "ict": 3584,
      "▁sun,": 3585,
      "▁run.": 3586,
      "▁nearby": 3587,
      "▁teleph": 3588,
      "bbles": 3589,
      "▁glue": 3590,
      "board.": 3591,
      "▁puddle.": 3592,
      "▁herself.": 3593,
      "▁problem.": 3594,
      "▁teeth": 3595,
      "▁triangle": 3596,
      "▁destroy": 3597,
      "cid": 3598,
      "lace": 3599,
      "oin": 3600,
      "▁sil": 3601,
      "▁dough": 3602,
      "▁beak": 3603,
      "▁seal": 3604,
      "▁friendsh": 3605,
      "▁cozy": 3606,
      "iew": 3607,
      "▁excited,": 3608,
      "▁coming.": 3609,
      "▁magaz": 3610,
      "▁paint.": 3611,
      "▁tired,": 3612,
      "▁crazy": 3613,
      "▁candy.": 3614,
      "▁treats": 3615,
      "▁umbrella": 3616,
      "▁motorcycle": 3617,
      "▁flexible": 3618,
      "eed": 3619,
      "i.": 3620,
      "▁er": 3621,
      "inary": 3622,
      "▁cere": 3623,
      "▁pas": 3624,
      "▁sauce": 3625,
      "▁thie": 3626,
      "▁helps": 3627,
      "▁golf": 3628,
      "▁themselve": 3629,
      "▁lean": 3630,
      "▁clay": 3631,
      "ase.": 3632,
      "▁scary.": 3633,
      "▁fluff": 3634,
      "▁ran,": 3635,
      "▁decide": 3636,
      "▁view": 3637,
      "▁animals,": 3638,
      "▁enorm": 3639,
      "▁test": 3640,
      "▁bookc": 3641,
      "▁ground.\n": 3642,
      "▁garden.\n": 3643,
      "▁angel": 3644,
      "▁picture.": 3645,
      "azz": 3646,
      "▁\"Hello": 3647,
      "▁cryst": 3648,
      "▁tells": 3649,
      "▁jeep": 3650,
      "▁finished,": 3651,
      "▁necklace": 3652,
      "▁disappoin": 3653,
      "▁radi": 3654,
      "▁generous": 3655,
      "▁Toby": 3656,
      "▁ghost": 3657,
      "▁midd": 3658,
      "▁insect": 3659,
      "ee": 3660,
      "▁now,": 3661,
      "pped,": 3662,
      "▁soar": 3663,
      "ulif": 3664,
      "▁chu": 3665,
      "▁special.\n": 3666,
      "▁off.": 3667,
      "▁morning": 3668,
      "▁travel": 3669,
      "▁rud": 3670,
      "▁goodbye.": 3671,
      "▁dancing": 3672,
      "▁accid": 3673,
      "▁complet": 3674,
      "▁potato": 3675,
      "▁mailbox": 3676,
      "▁alone.\n": 3677,
      "▁bicycle": 3678,
      "▁loyal": 3679,
      "uliflower": 3680,
      "▁melt": 3681,
      "▁gar": 3682,
      "irit": 3683,
      "▁jung": 3684,
      "▁dogs": 3685,
      "▁nosy": 3686,
      "▁grap": 3687,
      "▁shining,": 3688,
      "▁\"Sp": 3689,
      "▁family.\n": 3690,
      "▁vol": 3691,
      "▁wrote": 3692,
      "▁shoot": 3693,
      "▁train.": 3694,
      "▁angry.\n": 3695,
      "▁fall.": 3696,
      "▁dream.": 3697,
      "▁\"Go": 3698,
      "▁words.": 3699,
      "▁\"Are": 3700,
      "▁cauliflower": 3701,
      "▁trouble": 3702,
      "▁confused.": 3703,
      "▁shelf.": 3704,
      "▁encou": 3705,
      "▁caterpillar": 3706,
      "▁competit": 3707,
      "web": 3708,
      "▁tunn": 3709,
      "▁silly.": 3710,
      "▁harm": 3711,
      "▁cob": 3712,
      "enny": 3713,
      "▁shield": 3714,
      "seum": 3715,
      "▁can.": 3716,
      "▁nose.": 3717,
      "▁Speed": 3718,
      "▁museum": 3719,
      "▁again.\"\n": 3720,
      "ife": 3721,
      "▁dad.\n": 3722,
      "▁jumped,": 3723,
      "▁snow.": 3724,
      "▁soft,": 3725,
      "▁using": 3726,
      "▁leaf.": 3727,
      "▁wheat": 3728,
      "▁bathrob": 3729,
      "▁licked": 3730,
      "ventually": 3731,
      "▁successful": 3732,
      "▁wealthy": 3733,
      "▁cobweb": 3734,
      "ches.": 3735,
      "ccol": 3736,
      "nam": 3737,
      "oot": 3738,
      "wber": 3739,
      "▁sighed": 3740,
      "ine,": 3741,
      "▁coo": 3742,
      "▁mask": 3743,
      "▁goat": 3744,
      "▁spirit": 3745,
      "▁cars,": 3746,
      "▁new.": 3747,
      "▁\"Where": 3748,
      "▁pro": 3749,
      "▁vine": 3750,
      "▁laughed,": 3751,
      "▁grace": 3752,
      "ext": 3753,
      "▁\"Sam,": 3754,
      "▁delight": 3755,
      "▁fight.": 3756,
      "▁missile": 3757,
      "eterm": 3758,
      "▁celebr": 3759,
      "▁present": 3760,
      "▁bitter": 3761,
      "▁chubby": 3762,
      "▁sink": 3763,
      "▁luck": 3764,
      "▁determ": 3765,
      "▁Sn": 3766,
      "▁happin": 3767,
      "▁shiver": 3768,
      "▁spell": 3769,
      "▁meant": 3770,
      "▁pepper": 3771,
      "▁fast.\n": 3772,
      "▁moder": 3773,
      "▁stove": 3774,
      "▁soon.\n": 3775,
      "▁important.": 3776,
      "▁penny": 3777,
      "▁spinning": 3778,
      "▁cheerful": 3779,
      "▁admir": 3780,
      "▁regular": 3781,
      "▁lifted": 3782,
      "▁expensive": 3783,
      "▁picnic": 3784,
      "▁enormous": 3785,
      "xy": 3786,
      "▁friend.\"\n": 3787,
      "▁balls": 3788,
      "▁go!\"": 3789,
      "▁changed": 3790,
      "▁hock": 3791,
      "inky": 3792,
      "▁rocks.": 3793,
      "▁hands.\n": 3794,
      "▁\"Sue,": 3795,
      "▁Ru": 3796,
      "▁useful": 3797,
      "▁create": 3798,
      "▁steal": 3799,
      "▁please!\"": 3800,
      "▁grandma.": 3801,
      "▁music.": 3802,
      "▁camer": 3803,
      "▁today.": 3804,
      "▁course": 3805,
      "▁invited": 3806,
      "▁melon": 3807,
      "▁terrible": 3808,
      "▁clumsy": 3809,
      "▁normal": 3810,
      "▁volcan": 3811,
      "▁modern": 3812,
      "▁lit": 3813,
      "▁line": 3814,
      "imne": 3815,
      "▁Timmy.": 3816,
      "▁stranger": 3817,
      "▁excited!": 3818,
      "▁ever.\n": 3819,
      "▁Suddenly": 3820,
      "▁broccol": 3821,
      "▁everyone.\n": 3822,
      "▁hill,": 3823,
      "▁balloon.": 3824,
      "▁gifted": 3825,
      "▁gift.": 3826,
      "▁happened!": 3827,
      "▁persist": 3828,
      "▁sick.": 3829,
      "▁pocket": 3830,
      "▁passport": 3831,
      "▁impressive": 3832,
      "▁ordinary": 3833,
      "dile": 3834,
      "ither": 3835,
      "▁cage": 3836,
      "▁friend.\"": 3837,
      "▁rop": 3838,
      "▁spun": 3839,
      "▁worry.": 3840,
      "▁uncom": 3841,
      "▁true": 3842,
      "▁over.": 3843,
      "ement": 3844,
      "▁work.\n": 3845,
      "▁here.": 3846,
      "▁adventur": 3847,
      "codile": 3848,
      "▁cried.\n": 3849,
      "▁dangerous.": 3850,
      "▁design": 3851,
      "▁returned": 3852,
      "▁kissed": 3853,
      "▁jealous": 3854,
      "▁intelligent": 3855,
      "▁tough": 3856,
      "▁pumpkin": 3857,
      "▁figure": 3858,
      "▁uncomfort": 3859,
      "hes,": 3860,
      "▁yaw": 3861,
      "▁one,": 3862,
      "▁liz": 3863,
      "▁ship": 3864,
      "▁smart.": 3865,
      "▁manag": 3866,
      "▁Mia,": 3867,
      "▁feet": 3868,
      "▁switch": 3869,
      "▁friends.\"\n": 3870,
      "▁try.": 3871,
      "▁ornam": 3872,
      "▁deaf": 3873,
      "▁legs": 3874,
      "▁pige": 3875,
      "▁bridge": 3876,
      "▁humble": 3877,
      "▁raced": 3878,
      "▁crocodile": 3879,
      "▁bur": 3880,
      "▁pip": 3881,
      "▁red,": 3882,
      "ad,": 3883,
      "▁forward": 3884,
      "▁whale": 3885,
      "▁load": 3886,
      "ulu": 3887,
      "▁swan": 3888,
      "▁peach": 3889,
      "▁nice.\n": 3890,
      "▁towel": 3891,
      "▁beautiful.": 3892,
      "▁metal": 3893,
      "▁duck.": 3894,
      "▁race,": 3895,
      "▁haircut": 3896,
      "▁\"Give": 3897,
      "▁fur.": 3898,
      "▁shop.": 3899,
      "▁eras": 3900,
      "bul": 3901,
      "▁dry.": 3902,
      "lend": 3903,
      "▁it,\"": 3904,
      "▁playground": 3905,
      "▁elev": 3906,
      "▁lion.": 3907,
      "▁see.": 3908,
      "▁giraff": 3909,
      "▁Ben.\n": 3910,
      "▁blue,": 3911,
      "▁\"Let": 3912,
      "▁ambul": 3913,
      "▁fish,": 3914,
      "▁boats": 3915,
      "▁\"Ben,": 3916,
      "▁clouds": 3917,
      "▁nap.": 3918,
      "▁spoiled": 3919,
      "▁soldier": 3920,
      "▁strawber": 3921,
      "▁bracelet": 3922,
      "▁thief": 3923,
      "▁elevator": 3924,
      "▁ambulance": 3925,
      "▁sle": 3926,
      "▁send": 3927,
      "▁way.\n": 3928,
      "▁Sus": 3929,
      "▁gone,": 3930,
      "▁playful": 3931,
      "▁oat": 3932,
      "▁Lulu": 3933,
      "▁stared": 3934,
      "▁factor": 3935,
      "▁choose": 3936,
      "▁chimne": 3937,
      "▁poem": 3938,
      "▁Anna,": 3939,
      "▁Anna's": 3940,
      "▁magn": 3941,
      "▁cake,": 3942,
      "▁home.\"": 3943,
      "▁ador": 3944,
      "▁Dad.": 3945,
      "▁writ": 3946,
      "▁hole,": 3947,
      "▁ribb": 3948,
      "▁deliver": 3949,
      "▁crick": 3950,
      "▁split": 3951,
      "▁set,": 3952,
      "▁attract": 3953,
      "▁shrink": 3954,
      "▁mistake.": 3955,
      "▁decorate": 3956,
      "▁trumpet": 3957,
      "▁gloomy": 3958,
      "▁leopard": 3959,
      "▁fu": 3960,
      "▁cop": 3961,
      "▁pand": 3962,
      "▁pine": 3963,
      "▁nur": 3964,
      "▁Little": 3965,
      "▁Br": 3966,
      "▁kay": 3967,
      "▁Max!": 3968,
      "▁spear": 3969,
      "▁smaller": 3970,
      "▁suns": 3971,
      "▁Mom,": 3972,
      "▁quit": 3973,
      "▁sandbox": 3974,
      "▁shovel": 3975,
      "▁blanket.": 3976,
      "▁guess": 3977,
      "▁shrimp": 3978,
      "▁phot": 3979,
      "▁Buzzy": 3980,
      "▁added": 3981,
      "▁ceil": 3982,
      "▁cave.": 3983,
      "▁friendship": 3984,
      "fish": 3985,
      "ond": 3986,
      "▁pow": 3987,
      "ary.": 3988,
      "arian": 3989,
      "▁short": 3990,
      "uring": 3991,
      "▁ball!\"": 3992,
      "▁rode": 3993,
      "▁flash": 3994,
      "▁friends.\"": 3995,
      "▁dad's": 3996,
      "▁moving": 3997,
      "▁pretty.\n": 3998,
      "▁Pipp": 3999,
      "▁hats": 4000,
      "▁fruits": 4001,
      "▁cupboard": 4002,
      "▁bigger.": 4003,
      "▁street": 4004,
      "▁popular": 4005,
      "▁enth": 4006,
      "▁stretch": 4007,
      "▁poured": 4008,
      "▁avocado": 4009,
      "▁disgusting": 4010,
      "'d": 4011,
      "by.": 4012,
      "▁ed": 4013,
      "▁tiger": 4014,
      "▁lake.": 4015,
      "▁dess": 4016,
      "▁yes": 4017,
      "▁eventually": 4018,
      "stiv": 4019,
      "▁dove": 4020,
      "▁spend": 4021,
      "▁hopping": 4022,
      "▁uncle": 4023,
      "▁key.": 4024,
      "▁animals.\n": 4025,
      "▁chest": 4026,
      "▁rubbed": 4027,
      "▁barrel": 4028,
      "▁pale": 4029,
      "▁polish": 4030,
      "▁treasure.": 4031,
      "▁smoke": 4032,
      "▁backyard": 4033,
      "▁explained": 4034,
      "▁sneez": 4035,
      "▁crawl": 4036,
      "▁wiped": 4037,
      "▁mushroom": 4038,
      "▁slept": 4039,
      "▁enthus": 4040,
      "▁ot": 4041,
      "▁wool": 4042,
      "▁lamp": 4043,
      "▁dust": 4044,
      "lex": 4045,
      "▁\"J": 4046,
      "▁Olive": 4047,
      "▁ston": 4048,
      "▁Tom!\"": 4049,
      "▁too.\"": 4050,
      "▁festiv": 4051,
      "▁itself": 4052,
      "▁twig": 4053,
      "▁bright.": 4054,
      "▁voice.\n": 4055,
      "▁patch": 4056,
      "▁zeb": 4057,
      "▁pupp": 4058,
      "▁party.\n": 4059,
      "▁anymore,": 4060,
      "▁matt": 4061,
      "▁brother,": 4062,
      "▁blackboard": 4063,
      "▁job.": 4064,
      "▁dirt.": 4065,
      "▁bike.": 4066,
      "▁distant": 4067,
      "▁compassionate": 4068,
      "▁graceful": 4069,
      "▁otter": 4070,
      "▁zebra": 4071,
      "hic": 4072,
      "▁stumb": 4073,
      "stri": 4074,
      "▁once": 4075,
      "▁weep": 4076,
      "▁cat!": 4077,
      "▁root": 4078,
      "▁alread": 4079,
      "▁hug.\n": 4080,
      "▁env": 4081,
      "▁envel": 4082,
      "▁temp": 4083,
      "ctop": 4084,
      "▁hat,": 4085,
      "▁strong.\n": 4086,
      "▁pictures.": 4087,
      "▁Fin.": 4088,
      "▁planet": 4089,
      "▁painting": 4090,
      "▁firework": 4091,
      "▁swings.": 4092,
      "▁walking,": 4093,
      "▁vehic": 4094,
      "▁broke.": 4095,
      "▁laughing.": 4096,
      "▁lively": 4097,
      "▁confused": 4098,
      "▁gathered": 4099,
      "▁crawled": 4100,
      "▁screw": 4101,
      "▁finger": 4102,
      "▁glowing": 4103,
      "▁ashamed.": 4104,
      "▁cactus": 4105,
      "▁chalk": 4106,
      "▁hammer": 4107,
      "▁Instead,": 4108,
      "▁cereal": 4109,
      "▁managed": 4110,
      "ies,": 4111,
      "squ": 4112,
      "ted.": 4113,
      "zy.": 4114,
      "▁side.": 4115,
      "▁octop": 4116,
      "▁friendly.": 4117,
      "▁fork": 4118,
      "▁happy!\n": 4119,
      "▁scrat": 4120,
      "▁novel": 4121,
      "▁mem": 4122,
      "▁flame": 4123,
      "▁coco": 4124,
      "▁learning": 4125,
      "▁vi": 4126,
      "▁hosp": 4127,
      "▁Everywhere": 4128,
      "▁enjoying": 4129,
      "▁displ": 4130,
      "▁idea!": 4131,
      "▁plants": 4132,
      "▁suddenly,": 4133,
      "▁pocket.": 4134,
      "▁journey": 4135,
      "▁embarrassed": 4136,
      "▁strip": 4137,
      "▁pirate": 4138,
      "▁miserable": 4139,
      "▁bulb": 4140,
      "▁middle": 4141,
      "▁\"Spot,": 4142,
      "▁pigeon": 4143,
      "▁Brown": 4144,
      "▁hospit": 4145,
      "ject": 4146,
      "▁father": 4147,
      "▁Sh": 4148,
      "▁Soph": 4149,
      "▁beep": 4150,
      "▁oak": 4151,
      "▁ostri": 4152,
      "▁rid": 4153,
      "▁staff": 4154,
      "▁cat's": 4155,
      "▁You're": 4156,
      "▁mosqu": 4157,
      "▁Kim": 4158,
      "▁Pet": 4159,
      "▁place.\n": 4160,
      "▁bread.": 4161,
      "▁explore.": 4162,
      "▁games,": 4163,
      "▁Zip": 4164,
      "dest": 4165,
      "▁waves": 4166,
      "▁basket.": 4167,
      "▁gone!": 4168,
      "▁yard.\n": 4169,
      "▁raise": 4170,
      "▁serious": 4171,
      "▁mine!\"": 4172,
      "▁Alice": 4173,
      "▁giving": 4174,
      "▁passed": 4175,
      "▁mosquit": 4176,
      "gu": 4177,
      "ik": 4178,
      "▁tor": 4179,
      "ory": 4180,
      "▁so,": 4181,
      "tern": 4182,
      "▁separ": 4183,
      "▁dog!": 4184,
      "▁club": 4185,
      "▁boy's": 4186,
      "▁Spike": 4187,
      "▁chain": 4188,
      "▁slow.": 4189,
      "▁strugg": 4190,
      "▁story.": 4191,
      "▁dolls.": 4192,
      "▁cool.": 4193,
      "▁Buddy.": 4194,
      "▁honey.": 4195,
      "▁Emily": 4196,
      "▁super": 4197,
      "▁upset.": 4198,
      "▁last,": 4199,
      "▁independent": 4200,
      "appy": 4201,
      "▁led": 4202,
      "▁lat": 4203,
      "▁lying": 4204,
      "▁pit": 4205,
      "▁pist": 4206,
      "▁rever": 4207,
      "asis": 4208,
      "▁meal": 4209,
      "▁best.": 4210,
      "▁showing": 4211,
      "▁this?\"": 4212,
      "aky": 4213,
      "▁painter": 4214,
      "▁restaur": 4215,
      "▁rice": 4216,
      "▁noises.": 4217,
      "▁pot.": 4218,
      "▁sailed": 4219,
      "ipper": 4220,
      "▁belonged": 4221,
      "▁seeds": 4222,
      "▁lawy": 4223,
      "▁pistol": 4224,
      "▁restaurant": 4225,
      "loo": 4226,
      "▁ig": 4227,
      "isted": 4228,
      "▁gear": 4229,
      "▁gasp": 4230,
      "▁oasis": 4231,
      "▁shut": 4232,
      "▁helic": 4233,
      "▁refus": 4234,
      "▁dog!\"": 4235,
      "▁\"Is": 4236,
      "opter": 4237,
      "▁vide": 4238,
      "▁careless": 4239,
      "▁poked": 4240,
      "▁Andy": 4241,
      "▁laughed.\n": 4242,
      "▁Carl": 4243,
      "▁hand.\n": 4244,
      "▁two,": 4245,
      "▁sniff": 4246,
      "▁high,": 4247,
      "▁squash": 4248,
      "▁stopped.": 4249,
      "▁jar.": 4250,
      "▁calend": 4251,
      "▁snack.": 4252,
      "▁Ellie": 4253,
      "▁selfish.": 4254,
      "▁popc": 4255,
      "▁flute": 4256,
      "▁ignorant": 4257,
      "▁turke": 4258,
      "▁helmet": 4259,
      "▁torn": 4260,
      "▁igloo": 4261,
      "▁helicopter": 4262,
      "aving": 4263,
      "▁dizz": 4264,
      "▁dizzy": 4265,
      "▁pon": 4266,
      "ime": 4267,
      "▁play!\"": 4268,
      "▁rise": 4269,
      "▁fun.\"\n": 4270,
      "rage": 4271,
      "▁go.\n": 4272,
      "▁me!\"\n": 4273,
      "▁brus": 4274,
      "iast": 4275,
      "▁unpack": 4276,
      "▁eat.\n": 4277,
      "rosc": 4278,
      "▁now.\"": 4279,
      "▁ladder.": 4280,
      "▁swings,": 4281,
      "▁owl.": 4282,
      "▁pengu": 4283,
      "▁mint": 4284,
      "▁wings.": 4285,
      "▁children.": 4286,
      "▁Grandpa": 4287,
      "▁spoke": 4288,
      "▁desk": 4289,
      "▁organiz": 4290,
      "▁support": 4291,
      "▁\"Yes!": 4292,
      "▁whisp": 4293,
      "▁fearful": 4294,
      "▁berries": 4295,
      "▁anxious": 4296,
      "▁monster.": 4297,
      "▁pizza": 4298,
      "▁magazine": 4299,
      "▁hockey": 4300,
      "▁enthusiast": 4301,
      "gen": 4302,
      "▁sight": 4303,
      "▁cell": 4304,
      "▁bean": 4305,
      "▁weap": 4306,
      "▁Jake": 4307,
      "▁away!": 4308,
      "▁chance": 4309,
      "▁Lucy,": 4310,
      "▁poke": 4311,
      "▁modest": 4312,
      "▁hurt.\n": 4313,
      "▁ever.": 4314,
      "▁Rex": 4315,
      "▁closet": 4316,
      "▁means": 4317,
      "▁pond.\n": 4318,
      "▁pattern": 4319,
      "▁promis": 4320,
      "▁apples.": 4321,
      "▁world.\n": 4322,
      "▁miner": 4323,
      "▁resc": 4324,
      "▁resist": 4325,
      "▁trouble.": 4326,
      "▁pinch": 4327,
      "▁practiced": 4328,
      "▁Jane.": 4329,
      "▁Snow": 4330,
      "▁ornament": 4331,
      "▁adorable": 4332,
      "▁flashlight": 4333,
      "▁already": 4334,
      "▁viol": 4335,
      "oppy": 4336,
      "▁tent": 4337,
      "▁tire": 4338,
      "▁notice": 4339,
      "▁Alex": 4340,
      "▁mommy.": 4341,
      "▁wanted.": 4342,
      "ople": 4343,
      "▁good.\n": 4344,
      "▁mead": 4345,
      "▁Mom!": 4346,
      "▁whenever": 4347,
      "▁knee": 4348,
      "▁knee.": 4349,
      "▁grass,": 4350,
      "▁places": 4351,
      "▁singing.": 4352,
      "▁songs": 4353,
      "▁zip": 4354,
      "▁surprised!": 4355,
      "▁win.": 4356,
      "▁balloons": 4357,
      "▁cup.": 4358,
      "▁shapes.": 4359,
      "▁pasta": 4360,
      "▁juice.": 4361,
      "▁valu": 4362,
      "▁salad": 4363,
      "▁flea": 4364,
      "▁bounced": 4365,
      "▁medicine": 4366,
      "▁carpet": 4367,
      "▁determined": 4368,
      "het": 4369,
      "▁siz": 4370,
      "ndor": 4371,
      "▁bull": 4372,
      "▁to.": 4373,
      "inoc": 4374,
      "le.\n": 4375,
      "les.": 4376,
      "ilot": 4377,
      "▁beet": 4378,
      "▁beak.": 4379,
      "▁yes.": 4380,
      "▁on.\n": 4381,
      "▁weigh": 4382,
      "▁reward": 4383,
      "▁good,": 4384,
      "▁swing,": 4385,
      "▁knows": 4386,
      "▁Bob's": 4387,
      "▁exciting": 4388,
      "▁order": 4389,
      "▁strange.": 4390,
      "▁growl": 4391,
      "▁strong,": 4392,
      "▁closer.": 4393,
      "▁pulled,": 4394,
      "▁Give": 4395,
      "▁move!": 4396,
      "▁noise.\n": 4397,
      "▁wagon": 4398,
      "▁vendor": 4399,
      "▁quiet.": 4400,
      "▁free.": 4401,
      "▁leg.": 4402,
      "▁guard": 4403,
      "▁collar": 4404,
      "▁organized": 4405,
      "▁speed": 4406,
      "▁hay": 4407,
      "▁hook": 4408,
      "▁pag": 4409,
      "▁mitten": 4410,
      "▁OK": 4411,
      "▁stone.": 4412,
      "▁biggest": 4413,
      "▁help!\"": 4414,
      "▁loop": 4415,
      "inde": 4416,
      "▁reinde": 4417,
      "▁knot": 4418,
      "▁man,": 4419,
      "▁Jazz": 4420,
      "▁Sam.\n": 4421,
      "aghet": 4422,
      "▁against": 4423,
      "▁blin": 4424,
      "▁around.\n": 4425,
      "▁chur": 4426,
      "▁hose": 4427,
      "▁Co": 4428,
      "▁compl": 4429,
      "▁door.\n": 4430,
      "▁cube": 4431,
      "▁proud.\n": 4432,
      "▁quiz": 4433,
      "▁place,": 4434,
      "▁joy.": 4435,
      "▁fireman": 4436,
      "▁realised": 4437,
      "▁ruined": 4438,
      "▁cloud.": 4439,
      "▁sign.": 4440,
      "▁understand.": 4441,
      "▁bookshe": 4442,
      "▁medal": 4443,
      "▁imagine": 4444,
      "▁jacket": 4445,
      "▁crystal": 4446,
      "▁accident": 4447,
      "▁cooked": 4448,
      "▁lizard": 4449,
      "▁cricket": 4450,
      "aghett": 4451,
      "Qu": 4452,
      "hinoc": 4453,
      "roph": 4454,
      "sit": 4455,
      "▁mild": 4456,
      "▁ur": 4457,
      "▁rhinoc": 4458,
      "▁fort": 4459,
      "▁rep": 4460,
      "urb": 4461,
      "▁Where": 4462,
      "▁spaghett": 4463,
      "▁scale": 4464,
      "▁Fo": 4465,
      "iest": 4466,
      "▁true.": 4467,
      "▁rock.\n": 4468,
      "room,": 4469,
      "▁shine": 4470,
      "▁twir": 4471,
      "▁better,": 4472,
      "▁sorry.\n": 4473,
      "▁cake.\n": 4474,
      "▁now!\"": 4475,
      "▁impro": 4476,
      "▁while.": 4477,
      "▁fell.": 4478,
      "▁rabbit.": 4479,
      "▁floor.\n": 4480,
      "▁light.": 4481,
      "▁sett": 4482,
      "▁study": 4483,
      "▁himself.\n": 4484,
      "▁pointing": 4485,
      "▁soup.": 4486,
      "▁journ": 4487,
      "▁hanging": 4488,
      "▁filthy": 4489,
      "▁microph": 4490,
      "▁sunshine": 4491,
      "▁rude.": 4492,
      "▁attractive": 4493,
      "▁stumbled": 4494,
      "▁popcorn": 4495,
      "▁complain": 4496,
      "▁bookshelf": 4497,
      "▁rhinocer": 4498,
      "fore": 4499,
      "us.": 4500,
      "was": 4501,
      "▁Twe": 4502,
      "▁fog": 4503,
      "▁cush": 4504,
      "amond": 4505,
      "▁bird!\"": 4506,
      "▁jug": 4507,
      "▁rece": 4508,
      "▁spill": 4509,
      "▁say.\n": 4510,
      "▁again.\"": 4511,
      "▁anywhere": 4512,
      "▁shows": 4513,
      "▁this.": 4514,
      "▁surprised.\n": 4515,
      "▁stories.": 4516,
      "▁over,": 4517,
      "▁warm.\n": 4518,
      "▁lady.": 4519,
      "▁favour": 4520,
      "▁steak": 4521,
      "▁replied": 4522,
      "▁brother.": 4523,
      "▁laugh.\n": 4524,
      "▁button.": 4525,
      "▁rainbow.": 4526,
      "▁Before": 4527,
      "▁phone.": 4528,
      "▁carrying": 4529,
      "▁birthday.": 4530,
      "▁yoga": 4531,
      "▁disturb": 4532,
      "▁TV.": 4533,
      "▁diamond": 4534,
      "▁wishes": 4535,
      "▁jellyfish": 4536,
      "▁People": 4537,
      "▁dishwas": 4538,
      "▁aeroplane": 4539,
      "▁Speedy": 4540,
      "▁dishwasher": 4541,
      "ek.": 4542,
      "ging": 4543,
      "▁tub": 4544,
      "▁son": 4545,
      "▁sent": 4546,
      "▁toile": 4547,
      "ree": 4548,
      "▁cel": 4549,
      "ated": 4550,
      "ates": 4551,
      "▁bees": 4552,
      "▁rus": 4553,
      "▁you.\n": 4554,
      "▁you?\"\n": 4555,
      "▁Once,": 4556,
      "▁together!\"\n": 4557,
      "▁alert": 4558,
      "▁vase": 4559,
      "▁trut": 4560,
      "▁teasp": 4561,
      "essie": 4562,
      "▁Peter": 4563,
      "▁walks": 4564,
      "▁Rache": 4565,
      "▁leaves,": 4566,
      "▁soft.": 4567,
      "▁brave.\n": 4568,
      "▁right,": 4569,
      "▁songs.": 4570,
      "▁holds": 4571,
      "▁marched": 4572,
      "▁butterfl": 4573,
      "▁treat.": 4574,
      "▁came,": 4575,
      "▁sack.": 4576,
      "▁serve": 4577,
      "▁guitar": 4578,
      "▁telephone": 4579,
      "▁photo": 4580,
      "▁favourite": 4581,
      "▁teaspoon": 4582,
      "▁Rachel": 4583,
      "zag": 4584,
      "▁wing.": 4585,
      "▁bed.\n": 4586,
      "▁Sunny": 4587,
      "▁gum": 4588,
      "▁Here": 4589,
      "▁Ow": 4590,
      "▁Tim?\"": 4591,
      "▁Mike": 4592,
      "▁Are": 4593,
      "▁jail": 4594,
      "ass.": 4595,
      "▁Spark": 4596,
      "▁\"Well": 4597,
      "▁grass.\n": 4598,
      "▁flowers.\n": 4599,
      "▁shiny,": 4600,
      "▁Penny": 4601,
      "▁reading": 4602,
      "▁stopped,": 4603,
      "▁sleepy.": 4604,
      "body": 4605,
      "▁belt": 4606,
      "▁wallet": 4607,
      "▁Today,": 4608,
      "▁counted": 4609,
      "▁branches.": 4610,
      "▁napkin": 4611,
      "▁lonely.": 4612,
      "▁bathroom": 4613,
      "▁obser": 4614,
      "▁human": 4615,
      "▁couch": 4616,
      "▁stretched": 4617,
      "▁fluffy": 4618,
      "▁radio": 4619,
      "▁display": 4620,
      "▁mosquito": 4621,
      "ait": 4622,
      "h,": 4623,
      "led.": 4624,
      "▁aw": 4625,
      "▁pal": 4626,
      "▁may": 4627,
      "▁men": 4628,
      "▁hedge": 4629,
      "igzag": 4630,
      "ries.": 4631,
      "▁us.\"\n": 4632,
      "▁rot": 4633,
      "▁stamp": 4634,
      "▁friend's": 4635,
      "▁week": 4636,
      "▁Lily!\"": 4637,
      "▁Max.\n": 4638,
      "▁star.": 4639,
      "▁scoot": 4640,
      "▁say.": 4641,
      "▁flour": 4642,
      "▁happy.\"\n": 4643,
      "used": 4644,
      "▁opens": 4645,
      "▁fish.\n": 4646,
      "▁\"Ow": 4647,
      "▁bug,": 4648,
      "▁Kik": 4649,
      "▁Next": 4650,
      "▁game.\n": 4651,
      "▁forgave": 4652,
      "▁telling": 4653,
      "▁cooler": 4654,
      "▁dreamed": 4655,
      "▁butterfly.": 4656,
      "▁attach": 4657,
      "▁paw.": 4658,
      "▁punish": 4659,
      "▁accept": 4660,
      "▁celebrate": 4661,
      "▁ostrich": 4662,
      "▁superher": 4663,
      "dy,": 4664,
      "ten": 4665,
      "vet": 4666,
      "▁ahe": 4667,
      "▁bill": 4668,
      "▁hipp": 4669,
      "▁oil": 4670,
      "▁happily.": 4671,
      "ention": 4672,
      "chair": 4673,
      "▁went.": 4674,
      "▁cats": 4675,
      "▁leaving": 4676,
      "▁away.\"\n": 4677,
      "▁mule": 4678,
      "▁tree!": 4679,
      "▁sung": 4680,
      "▁above": 4681,
      "▁trunk": 4682,
      "▁old,": 4683,
      "▁calling": 4684,
      "azor": 4685,
      "▁faces.": 4686,
      "▁eyes,": 4687,
      "▁\"By": 4688,
      "▁sweater": 4689,
      "▁ruin": 4690,
      "▁crane": 4691,
      "▁shoe": 4692,
      "▁amazed.": 4693,
      "▁fighting.": 4694,
      "▁falls": 4695,
      "▁armchair": 4696,
      "▁higher.": 4697,
      "▁incl": 4698,
      "▁troub": 4699,
      "▁escape": 4700,
      "▁whisper": 4701,
      "▁barn.": 4702,
      "▁porch": 4703,
      "▁disappointed": 4704,
      "▁valuable": 4705,
      "▁palace": 4706,
      "▁aut": 4707,
      "▁hut": 4708,
      "▁hide.": 4709,
      "▁fly,": 4710,
      "▁pie.": 4711,
      "▁pilot": 4712,
      "▁gro": 4713,
      "▁those": 4714,
      "▁station": 4715,
      "ade.": 4716,
      "▁sheet": 4717,
      "▁body": 4718,
      "▁them.\"\n": 4719,
      "▁far.": 4720,
      "▁places.": 4721,
      "▁brave,": 4722,
      "▁asks.": 4723,
      "▁hole.\n": 4724,
      "▁pretending": 4725,
      "▁Daisy.": 4726,
      "▁marble": 4727,
      "▁swamp": 4728,
      "▁arm.": 4729,
      "▁legs.": 4730,
      "▁shells": 4731,
      "▁yard,": 4732,
      "▁belongs": 4733,
      "▁tomato": 4734,
      "▁basketball": 4735,
      "▁suggest": 4736,
      "▁ashamed": 4737,
      "▁surf": 4738,
      "▁harmless": 4739,
      "▁happiness": 4740,
      "▁volcano": 4741,
      "▁Pippin": 4742,
      "▁edge": 4743,
      "▁dessert": 4744,
      "▁separate": 4745,
      "▁calendar": 4746,
      "▁penguin": 4747,
      "ses": 4748,
      "▁tummy": 4749,
      "▁task": 4750,
      "arry": 4751,
      "▁razor": 4752,
      "▁either": 4753,
      "▁asht": 4754,
      "ured": 4755,
      "▁going.": 4756,
      "▁back!\"": 4757,
      "▁boys": 4758,
      "▁smiling": 4759,
      "▁one.\n": 4760,
      "▁offered": 4761,
      "▁trip.": 4762,
      "▁ducks.": 4763,
      "▁kitchen,": 4764,
      "▁sweet.": 4765,
      "▁pressed": 4766,
      "▁sister.": 4767,
      "▁shade": 4768,
      "▁raven": 4769,
      "▁bandage": 4770,
      "▁oven.": 4771,
      "▁thinking": 4772,
      "▁cherry": 4773,
      "▁practice": 4774,
      "▁admire": 4775,
      "▁movie": 4776,
      "▁label": 4777,
      "▁purse": 4778,
      "▁guilty": 4779,
      "▁tunnel": 4780,
      "▁panda": 4781,
      "▁stones": 4782,
      "▁Sophie": 4783,
      "▁sungl": 4784,
      "▁V": 4785,
      "ednes": 4786,
      "▁hunt": 4787,
      "▁fine": 4788,
      "render": 4789,
      "▁lend": 4790,
      "aroo": 4791,
      "▁gate": 4792,
      "▁herb": 4793,
      "▁lip": 4794,
      "▁board": 4795,
      "▁went,": 4796,
      "▁fun!\n": 4797,
      "▁repe": 4798,
      "▁ball!": 4799,
      "▁leather": 4800,
      "▁girl's": 4801,
      "▁Wednes": 4802,
      "▁meat": 4803,
      "▁what's": 4804,
      "▁pepp": 4805,
      "▁happen.\n": 4806,
      "angaroo": 4807,
      "▁share.\n": 4808,
      "▁hate": 4809,
      "▁thread": 4810,
      "▁remain": 4811,
      "▁cookie.": 4812,
      "▁toy.\"": 4813,
      "▁tripped": 4814,
      "▁game,": 4815,
      "▁sleep,": 4816,
      "▁curious.\n": 4817,
      "▁disag": 4818,
      "▁dark,": 4819,
      "▁shoes.": 4820,
      "▁different.": 4821,
      "▁perm": 4822,
      "▁arrow": 4823,
      "▁apples,": 4824,
      "▁plant.": 4825,
      "▁welcome": 4826,
      "▁me,\"": 4827,
      "▁doctor.": 4828,
      "▁coat.": 4829,
      "▁dragon.": 4830,
      "▁crayons": 4831,
      "▁crayons.": 4832,
      "▁milk.": 4833,
      "▁imagin": 4834,
      "▁wipe": 4835,
      "▁regret": 4836,
      "▁microsc": 4837,
      "▁Un": 4838,
      "▁piano": 4839,
      "▁complete": 4840,
      "▁admired": 4841,
      "▁broccoli": 4842,
      "▁adventurous": 4843,
      "▁uncomfortable": 4844,
      "▁cocoa": 4845,
      "▁Pete": 4846,
      "▁enthusiastic": 4847,
      "dom": 4848,
      "ee,": 4849,
      "lid": 4850,
      "▁later": 4851,
      "▁cage.": 4852,
      "▁mall": 4853,
      "▁Sm": 4854,
      "▁Sally,": 4855,
      "▁ins": 4856,
      "▁that?\"\n": 4857,
      "chor": 4858,
      "▁anchor": 4859,
      "▁too!\"\n": 4860,
      "▁junk": 4861,
      "▁ball?\"": 4862,
      "▁man's": 4863,
      "▁makeup": 4864,
      "▁me!": 4865,
      "▁swung": 4866,
      "▁holid": 4867,
      "▁post": 4868,
      "▁pee": 4869,
      "▁pebble": 4870,
      "▁rocks,": 4871,
      "▁nearby.": 4872,
      "▁love.": 4873,
      "▁hard.\n": 4874,
      "▁home.\"\n": 4875,
      "▁now.\"\n": 4876,
      "▁dolls,": 4877,
      "▁Ros": 4878,
      "▁blueber": 4879,
      "▁closet.": 4880,
      "▁trap": 4881,
      "▁faces": 4882,
      "▁restless": 4883,
      "▁Johnny": 4884,
      "▁tail.\n": 4885,
      "▁move.\n": 4886,
      "▁replace": 4887,
      "▁spring": 4888,
      "▁enough,": 4889,
      "▁\"They": 4890,
      "▁cheese.": 4891,
      "▁money.": 4892,
      "▁organize": 4893,
      "▁lawn": 4894,
      "▁radish": 4895,
      "▁squeez": 4896,
      "▁frustrated.": 4897,
      "▁prize": 4898,
      "▁computer": 4899,
      "▁Susie": 4900,
      "▁blinked": 4901,
      "▁improve": 4902,
      "▁menu": 4903,
      "▁Kiki": 4904,
      "lph": 4905,
      "ment": 4906,
      "under": 4907,
      "▁suff": 4908,
      "▁ped": 4909,
      "▁mug": 4910,
      "ision": 4911,
      "▁Sl": 4912,
      "▁stage": 4913,
      "▁Look": 4914,
      "▁Boun": 4915,
      "▁dolph": 4916,
      "▁shake.": 4917,
      "▁sof": 4918,
      "▁name.": 4919,
      "▁kangaroo": 4920,
      "▁knife": 4921,
      "▁feet.": 4922,
      "▁Dog": 4923,
      "▁mod": 4924,
      "▁mole": 4925,
      "▁comb": 4926,
      "▁grown": 4927,
      "▁grow.": 4928,
      "▁\"Did": 4929,
      "▁doll,": 4930,
      "▁nodded,": 4931,
      "▁pond,": 4932,
      "▁here?\"": 4933,
      "▁hungry,": 4934,
      "▁stuck.": 4935,
      "▁driving": 4936,
      "▁stud": 4937,
      "▁sailor": 4938,
      "▁cheered.": 4939,
      "▁nuts": 4940,
      "▁instead.": 4941,
      "▁nods.": 4942,
      "▁speak": 4943,
      "iction": 4944,
      "▁prov": 4945,
      "▁kayak": 4946,
      "▁sandbox.": 4947,
      "▁lawyer": 4948,
      "▁mineral": 4949,
      "▁rhinoceros": 4950,
      "med": 4951,
      "▁ir": 4952,
      "▁bone.": 4953,
      "▁dive": 4954,
      "▁diction": 4955,
      "▁hall": 4956,
      "▁\"E": 4957,
      "▁inf": 4958,
      "▁ok": 4959,
      "oof.": 4960,
      "▁Let": 4961,
      "▁do?\"": 4962,
      "▁did,": 4963,
      "▁car!\"": 4964,
      "▁Jam": 4965,
      "▁seek.": 4966,
      "▁alarm": 4967,
      "ia,": 4968,
      "▁Mommy.": 4969,
      "▁kindness": 4970,
      "▁\"Ouch": 4971,
      "▁telev": 4972,
      "▁bugs.": 4973,
      "▁ending.\n": 4974,
      "▁clean.\n": 4975,
      "▁close.": 4976,
      "▁Mrs.": 4977,
      "▁idea,": 4978,
      "▁mine.": 4979,
      "▁paws": 4980,
      "▁incre": 4981,
      "▁object": 4982,
      "▁raft": 4983,
      "▁bridge.": 4984,
      "▁prune": 4985,
      "▁stirred": 4986,
      "▁silver": 4987,
      "▁bookcase": 4988,
      "▁persistent": 4989,
      "▁envious": 4990,
      "▁weapon": 4991,
      "▁Coco": 4992,
      "fast": 4993,
      "ron": 4994,
      "▁Y": 4995,
      "▁Qu": 4996,
      "▁Ted": 4997,
      "▁five": 4998,
      "▁cone": 4999,
      "▁cudd": 5000,
      "ay,": 5001,
      "▁net.": 5002,
      "atch": 5003,
      "▁in.\n": 5004,
      "▁hist": 5005,
      "veal": 5006,
      "▁stars.": 5007,
      "▁other's": 5008,
      "▁me?": 5009,
      "▁thought.": 5010,
      "▁\"Wait": 5011,
      "▁anyway": 5012,
      "▁unh": 5013,
      "▁unite": 5014,
      "▁skip": 5015,
      "▁flower,": 5016,
      "▁snap": 5017,
      "▁climb.": 5018,
      "▁climbing": 5019,
      "▁Pandy": 5020,
      "▁couldn't.": 5021,
      "▁squirrel,": 5022,
      "▁yelled": 5023,
      "▁work,": 5024,
      "▁kitchen.\n": 5025,
      "▁here,": 5026,
      "▁rolling": 5027,
      "▁steam": 5028,
      "▁eyes.\n": 5029,
      "▁breakfast": 5030,
      "▁counting": 5031,
      "▁wrong,": 5032,
      "arth": 5033,
      "▁juicy": 5034,
      "▁boots": 5035,
      "▁surrender": 5036,
      "▁magnet": 5037,
      "▁powder": 5038,
      "▁whispered": 5039,
      "▁repair": 5040,
      "▁cushion": 5041,
      "aul": 5042,
      "ge,": 5043,
      "ience": 5044,
      "hes.\n": 5045,
      "▁sym": 5046,
      "▁saving": 5047,
      "▁thunder": 5048,
      "▁ring.": 5049,
      "▁Big": 5050,
      "▁onion": 5051,
      "▁shaking": 5052,
      "ses.": 5053,
      "▁is.": 5054,
      "▁reveal": 5055,
      "▁frame": 5056,
      "▁newsp": 5057,
      "▁meas": 5058,
      "▁putting": 5059,
      "▁lot.\n": 5060,
      "▁show.": 5061,
      "ogn": 5062,
      "▁strang": 5063,
      "▁kinds": 5064,
      "▁\"On": 5065,
      "▁bubbles": 5066,
      "▁trucks": 5067,
      "▁trail": 5068,
      "▁plane.": 5069,
      "▁heart.": 5070,
      "▁race.\n": 5071,
      "▁baby.": 5072,
      "▁bathe": 5073,
      "▁grandpa": 5074,
      "▁bedroom": 5075,
      "▁starts": 5076,
      "▁grandma's": 5077,
      "▁packed": 5078,
      "▁package": 5079,
      "▁grabs": 5080,
      "▁recogn": 5081,
      "▁cabinet": 5082,
      "▁fridge": 5083,
      "▁festival": 5084,
      "▁reindeer": 5085,
      "▁newspap": 5086,
      "cast": 5087,
      "dge.": 5088,
      "▁ax": 5089,
      "iture": 5090,
      "omob": 5091,
      "▁in,": 5092,
      "▁player": 5093,
      "▁stom": 5094,
      "unch": 5095,
      "▁Mandy": 5096,
      "▁shone": 5097,
      "▁Lily,\"": 5098,
      "▁balls.": 5099,
      "▁Sam!": 5100,
      "▁Sue!": 5101,
      "▁laund": 5102,
      "▁Dave": 5103,
      "▁intro": 5104,
      "▁surprise.\n": 5105,
      "urniture": 5106,
      "▁book,": 5107,
      "▁cleaning": 5108,
      "▁ground,": 5109,
      "▁Pinky": 5110,
      "▁waited.": 5111,
      "▁yummy.\n": 5112,
      "▁head.\n": 5113,
      "▁hoping": 5114,
      "▁sandcast": 5115,
      "▁path.": 5116,
      "bol": 5117,
      "▁dreaming": 5118,
      "▁anything.\n": 5119,
      "▁surprise!": 5120,
      "▁freez": 5121,
      "▁\"Ann": 5122,
      "▁snacks": 5123,
      "▁school,": 5124,
      "▁answer.": 5125,
      "▁locked": 5126,
      "▁barking": 5127,
      "▁machine.": 5128,
      "ventually,": 5129,
      "▁squeeze": 5130,
      "▁embarrass": 5131,
      "▁harsh": 5132,
      "▁leaned": 5133,
      "▁turkey": 5134,
      "▁hippo": 5135,
      "▁automob": 5136,
      "▁model": 5137,
      "▁infant": 5138,
      "▁introd": 5139,
      "▁automobile": 5140,
      "▁bet": 5141,
      "▁furniture": 5142,
      "inarian": 5143,
      "ite.": 5144,
      "▁lumber": 5145,
      "▁later,": 5146,
      "▁dear": 5147,
      "▁pair": 5148,
      "▁rhy": 5149,
      "▁rais": 5150,
      "▁roof": 5151,
      "▁shore": 5152,
      "▁there?\"": 5153,
      "htub": 5154,
      "▁boy.\n": 5155,
      "▁saying": 5156,
      "▁scarf.": 5157,
      "▁ext": 5158,
      "▁vall": 5159,
      "▁veter": 5160,
      "▁\"Yuck": 5161,
      "▁ending": 5162,
      "▁Paul": 5163,
      "▁adv": 5164,
      "▁pushing": 5165,
      "▁yelled,": 5166,
      "▁hill.\n": 5167,
      "▁okay?\"": 5168,
      "▁top.\n": 5169,
      "▁bathtub": 5170,
      "▁cries.": 5171,
      "▁left,": 5172,
      "▁marry": 5173,
      "▁land,": 5174,
      "▁judge": 5175,
      "▁bored.": 5176,
      "▁everything.": 5177,
      "▁attic.": 5178,
      "▁collec": 5179,
      "▁puzzle.": 5180,
      "▁invite": 5181,
      "▁distance": 5182,
      "▁avail": 5183,
      "▁film": 5184,
      "▁pants": 5185,
      "▁maze": 5186,
      "▁rope.": 5187,
      "▁ribbon": 5188,
      "▁fuel": 5189,
      "▁beetle": 5190,
      "▁symbol": 5191,
      "▁veterinarian": 5192,
      "eor": 5193,
      "gy": 5194,
      "sh.": 5195,
      "ues": 5196,
      "▁wre": 5197,
      "ince": 5198,
      "▁mummy": 5199,
      "▁nat": 5200,
      "▁gain": 5201,
      "▁gym": 5202,
      "ate,": 5203,
      "▁oxy": 5204,
      "▁you!": 5205,
      "▁could.\n": 5206,
      "▁leash": 5207,
      "▁girl.\n": 5208,
      "▁away!\"": 5209,
      "▁sunris": 5210,
      "▁popped": 5211,
      "▁opened,": 5212,
      "▁skipped": 5213,
      "▁picking": 5214,
      "▁needle": 5215,
      "▁Sara's": 5216,
      "▁Sarah.": 5217,
      "▁handed": 5218,
      "▁\"Mia,": 5219,
      "▁pretty,": 5220,
      "▁snake.": 5221,
      "▁joy.\n": 5222,
      "▁Kitty's": 5223,
      "▁Geor": 5224,
      "▁tired.\n": 5225,
      "▁sounds.": 5226,
      "▁pup": 5227,
      "▁lights": 5228,
      "▁visit.": 5229,
      "▁cried,": 5230,
      "▁bottle.": 5231,
      "▁everywhere,": 5232,
      "▁gone.\n": 5233,
      "▁bell.": 5234,
      "▁nod.": 5235,
      "▁sea.\n": 5236,
      "▁pool.": 5237,
      "▁\"Help,": 5238,
      "▁mind.": 5239,
      "▁bathrobe": 5240,
      "▁pipe": 5241,
      "▁eraser": 5242,
      "▁octopus": 5243,
      "▁repeat": 5244,
      "▁extra": 5245,
      "-up": 5246,
      "drob": 5247,
      "row.": 5248,
      "▁tug": 5249,
      "▁hive": 5250,
      "▁fought": 5251,
      "inking": 5252,
      "▁lid": 5253,
      "▁low,": 5254,
      "▁done.": 5255,
      "▁case": 5256,
      "▁cry,": 5257,
      "▁nation": 5258,
      "▁\"K": 5259,
      "stair": 5260,
      "▁forth": 5261,
      "▁dogs.": 5262,
      "ope.": 5263,
      "▁Sue.\n": 5264,
      "▁\"There": 5265,
      "▁finds": 5266,
      "▁look.": 5267,
      "▁hands,": 5268,
      "place": 5269,
      "▁careful.\n": 5270,
      "▁wind.": 5271,
      "▁buzz": 5272,
      "▁hurts": 5273,
      "▁Poppy": 5274,
      "▁colors.\n": 5275,
      "▁ready.": 5276,
      "▁now.\n": 5277,
      "▁doll's": 5278,
      "▁Rem": 5279,
      "▁soon.\"\n": 5280,
      "▁hotel": 5281,
      "▁safe,": 5282,
      "▁mustache": 5283,
      "▁treats.": 5284,
      "▁safe.\"\n": 5285,
      "▁table,": 5286,
      "▁today,": 5287,
      "▁mess.\n": 5288,
      "▁eggs": 5289,
      "▁village.": 5290,
      "▁robot.": 5291,
      "▁naughty.": 5292,
      "▁wardrob": 5293,
      "▁appeared.": 5294,
      "▁screen": 5295,
      "▁supply": 5296,
      "▁library": 5297,
      "▁reminded": 5298,
      "▁giraffe": 5299,
      "▁groc": 5300,
      "▁nature": 5301,
      "cake": 5302,
      "ube": 5303,
      "▁tube": 5304,
      "▁wob": 5305,
      "▁mass": 5306,
      "▁roof.": 5307,
      "▁Mar": 5308,
      "▁trees.\n": 5309,
      "▁coin.": 5310,
      "▁playing.\n": 5311,
      "▁Spot!": 5312,
      "▁tree.\"": 5313,
      "▁fastest": 5314,
      "▁ener": 5315,
      "▁careful.\"\n": 5316,
      "▁green.": 5317,
      "▁mommy,": 5318,
      "▁sounded": 5319,
      "▁farm,": 5320,
      "▁doesn't": 5321,
      "▁claw": 5322,
      "▁bite.": 5323,
      "▁balloons.": 5324,
      "▁carefully.": 5325,
      "▁breathe": 5326,
      "▁sprayed": 5327,
      "▁steps": 5328,
      "▁Under": 5329,
      "▁chalk.": 5330,
      "▁hurry": 5331,
      "▁frightened": 5332,
      "▁discovered": 5333,
      "▁garage.": 5334,
      "▁competitive": 5335,
      "▁church": 5336,
      "▁spaghetti": 5337,
      "▁Tweet": 5338,
      "▁ashtray": 5339,
      "▁pedal": 5340,
      "mend": 5341,
      "mpt": 5342,
      "▁ske": 5343,
      "▁sum": 5344,
      "ines": 5345,
      "▁Sk": 5346,
      "▁oy": 5347,
      "▁days,": 5348,
      "▁red.": 5349,
      "▁you\"": 5350,
      "▁Billy.": 5351,
      "▁went.\n": 5352,
      "▁seco": 5353,
      "▁sport": 5354,
      "▁from.": 5355,
      "▁tree!\"": 5356,
      "iform": 5357,
      "▁End": 5358,
      "▁pole": 5359,
      "▁excitement": 5360,
      "▁uniform": 5361,
      "▁pretty!\"": 5362,
      "▁bus.": 5363,
      "▁harder": 5364,
      "▁clean,": 5365,
      "▁sticks.": 5366,
      "▁hat.\n": 5367,
      "▁ways": 5368,
      "▁pulls": 5369,
      "▁curious,": 5370,
      "▁okay?\"\n": 5371,
      "▁bright,": 5372,
      "▁rest.\n": 5373,
      "▁creek": 5374,
      "▁full.": 5375,
      "▁winter": 5376,
      "▁building.": 5377,
      "▁spot.": 5378,
      "▁attic": 5379,
      "▁Bee": 5380,
      "▁pastry": 5381,
      "▁chasing": 5382,
      "▁patient.": 5383,
      "▁tricks": 5384,
      "▁market": 5385,
      "▁tears": 5386,
      "▁ignore": 5387,
      "▁couch.": 5388,
      "▁teeth.": 5389,
      "▁colourful": 5390,
      "▁examine": 5391,
      "▁impatient.": 5392,
      "▁hospital": 5393,
      "▁dizzy.": 5394,
      "▁accidentally": 5395,
      "▁rushed": 5396,
      "▁\"Bye,": 5397,
      "▁Wednesday": 5398,
      "▁second": 5399,
      "brat": 5400,
      "noon": 5401,
      "▁tax": 5402,
      "▁bow.": 5403,
      "aring": 5404,
      "▁grill": 5405,
      "▁play!\"\n": 5406,
      "▁yach": 5407,
      "▁earth": 5408,
      "▁Bessie": 5409,
      "▁had.": 5410,
      "▁often": 5411,
      "▁cane": 5412,
      "▁knight": 5413,
      "icy.": 5414,
      "▁new,": 5415,
      "▁coff": 5416,
      "uct": 5417,
      "▁cham": 5418,
      "▁know,\"": 5419,
      "▁holes": 5420,
      "▁peek": 5421,
      "▁eating,": 5422,
      "▁running.": 5423,
      "▁towers": 5424,
      "▁better.\"\n": 5425,
      "▁better.\"": 5426,
      "▁high.\n": 5427,
      "▁bad.\n": 5428,
      "▁afternoon": 5429,
      "▁color.": 5430,
      "▁magic.": 5431,
      "▁Jack's": 5432,
      "▁kite.": 5433,
      "▁fireplace": 5434,
      "▁sleep.\n": 5435,
      "▁fixing": 5436,
      "▁tall.": 5437,
      "▁stops": 5438,
      "▁town.\n": 5439,
      "▁clouds.": 5440,
      "▁airport": 5441,
      "▁dinner.\n": 5442,
      "▁bathroom.": 5443,
      "▁forever.": 5444,
      "▁shirt.": 5445,
      "▁snowman.": 5446,
      "▁cardboard": 5447,
      "▁kiss.": 5448,
      "▁trusted": 5449,
      "▁mountain.": 5450,
      "▁answered,": 5451,
      "▁yarn.": 5452,
      "▁Betty": 5453,
      "▁camera": 5454,
      "▁Owl": 5455,
      "▁peeked": 5456,
      "▁skelet": 5457,
      "ale.": 5458,
      "ium": 5459,
      "▁Mag": 5460,
      "▁allowed": 5461,
      "▁recom": 5462,
      "▁Jul": 5463,
      "▁thing.\n": 5464,
      "▁flies": 5465,
      "▁Bob,": 5466,
      "▁nicely.": 5467,
      "▁happen.": 5468,
      "▁listen.\n": 5469,
      "▁books,": 5470,
      "▁walk,": 5471,
      "▁remove": 5472,
      "▁soon.\"": 5473,
      "▁\"Hi!": 5474,
      "▁sleeping": 5475,
      "▁slide.\n": 5476,
      "▁clapped.": 5477,
      "▁swim.": 5478,
      "▁brothers": 5479,
      "▁message": 5480,
      "▁prevent": 5481,
      "▁Mimi.": 5482,
      "▁secret.": 5483,
      "thy.": 5484,
      "▁believed": 5485,
      "▁chose": 5486,
      "▁worried.\n": 5487,
      "▁scissors.": 5488,
      "▁shakes": 5489,
      "▁licks": 5490,
      "▁celebrat": 5491,
      "▁asleep.": 5492,
      "▁harbor": 5493,
      "▁thirsty.": 5494,
      "▁\"Here,": 5495,
      "▁nurse": 5496,
      "▁refused": 5497,
      "▁rescue": 5498,
      "▁violin": 5499,
      "▁superhero": 5500,
      "▁dolphin": 5501,
      "▁wreck": 5502,
      "▁George": 5503,
      "▁recommend": 5504,
      "cles": 5505,
      "ier.": 5506,
      "▁cur": 5507,
      "▁saus": 5508,
      "▁thumb": 5509,
      "▁Hel": 5510,
      "▁Lol": 5511,
      "▁doing,": 5512,
      "▁tremb": 5513,
      "▁friends!\"": 5514,
      "ecause": 5515,
      "icer": 5516,
      "▁fauc": 5517,
      "▁away!\"\n": 5518,
      "▁Mia!": 5519,
      "▁boxes": 5520,
      "▁chang": 5521,
      "▁Elly": 5522,
      "▁tray": 5523,
      "▁slow,": 5524,
      "▁kind.\n": 5525,
      "▁tease": 5526,
      "▁read.": 5527,
      "▁office": 5528,
      "▁yellow.": 5529,
      "▁family,": 5530,
      "▁rabbit,": 5531,
      "▁here.\"\n": 5532,
      "▁paper,": 5533,
      "▁walls": 5534,
      "▁marri": 5535,
      "▁vest": 5536,
      "▁press": 5537,
      "▁treasure.\n": 5538,
      "thm": 5539,
      "▁field,": 5540,
      "▁barked,": 5541,
      "▁welcome.": 5542,
      "▁salt": 5543,
      "▁explored": 5544,
      "▁football": 5545,
      "▁vanished": 5546,
      "▁Birdy": 5547,
      "▁given": 5548,
      "▁bumped": 5549,
      "▁memor": 5550,
      "▁video": 5551,
      "▁\"Anna,": 5552,
      "▁rhythm": 5553,
      "aked": 5554,
      "na": 5555,
      "up.": 5556,
      "▁ten": 5557,
      "▁size": 5558,
      "itch.": 5559,
      "▁cable": 5560,
      "▁itch": 5561,
      "▁ride.": 5562,
      "chan": 5563,
      "▁too,\"": 5564,
      "ason": 5565,
      "▁\"Tom": 5566,
      "▁flood": 5567,
      "ucture": 5568,
      "▁Annie": 5569,
      "▁snugg": 5570,
      "▁\"Your": 5571,
      "▁\"Dad,": 5572,
      "▁off,": 5573,
      "▁sticker": 5574,
      "▁beautiful,": 5575,
      "▁three,": 5576,
      "▁warm,": 5577,
      "▁finally,": 5578,
      "▁Sally's": 5579,
      "▁right.\n": 5580,
      "▁voice,": 5581,
      "▁cold,": 5582,
      "▁owner.": 5583,
      "aches": 5584,
      "▁fruit,": 5585,
      "▁fruits.": 5586,
      "▁ant.": 5587,
      "▁glad.": 5588,
      "▁please?\"\n": 5589,
      "▁crib": 5590,
      "▁dream,": 5591,
      "▁plants.": 5592,
      "▁camp": 5593,
      "▁clothes,": 5594,
      "▁growing": 5595,
      "▁throwing": 5596,
      "▁shape": 5597,
      "▁higher,": 5598,
      "▁side.\n": 5599,
      "▁bucket.": 5600,
      "▁\"Hey": 5601,
      "▁whistle.": 5602,
      "▁coins": 5603,
      "▁pillow.": 5604,
      "▁\"Read": 5605,
      "▁journey.": 5606,
      "▁rubber": 5607,
      "▁strike": 5608,
      "▁thirsty": 5609,
      "▁yawn": 5610,
      "▁sunset": 5611,
      "night": 5612,
      "riger": 5613,
      "▁sill": 5614,
      "▁Tin": 5615,
      "▁late": 5616,
      "▁pad": 5617,
      "▁port": 5618,
      "▁gaz": 5619,
      "▁\"th": 5620,
      "▁Or": 5621,
      "▁yield": 5622,
      "keep": 5623,
      "▁Mill": 5624,
      "▁do,": 5625,
      "▁neat": 5626,
      "▁names": 5627,
      "▁king.": 5628,
      "▁wanted.\n": 5629,
      "▁toy!": 5630,
      "▁ball.\"": 5631,
      "▁goal": 5632,
      "▁found.": 5633,
      "▁mechan": 5634,
      "▁made.": 5635,
      "▁anyone.": 5636,
      "▁Eventually,": 5637,
      "▁jumps": 5638,
      "▁slip": 5639,
      "▁skin": 5640,
      "▁Cl": 5641,
      "▁structure": 5642,
      "▁kind,": 5643,
      "▁unexpected.": 5644,
      "▁now!\"\n": 5645,
      "▁\"See,": 5646,
      "▁watch.": 5647,
      "▁trucks.": 5648,
      "▁close,": 5649,
      "▁restless.": 5650,
      "▁taller": 5651,
      "▁song.\n": 5652,
      "aced": 5653,
      "▁moment,": 5654,
      "▁Today": 5655,
      "▁doing?": 5656,
      "▁tight.\n": 5657,
      "▁wrong.\n": 5658,
      "▁branches": 5659,
      "▁dinner,": 5660,
      "▁shell.": 5661,
      "▁carrots": 5662,
      "▁circle.": 5663,
      "▁sandwic": 5664,
      "▁spoon.": 5665,
      "▁imagined": 5666,
      "▁nervous.": 5667,
      "▁clock.": 5668,
      "▁feathers": 5669,
      "▁drawings": 5670,
      "▁drops": 5671,
      "▁vegetables": 5672,
      "▁refriger": 5673,
      "▁mattress": 5674,
      "▁temple": 5675,
      "▁troubled": 5676,
      "▁sunglass": 5677,
      "▁iron": 5678,
      "▁refrigerator": 5679,
      "-a": 5680,
      "cc": 5681,
      "cen": 5682,
      "cus": 5683,
      "▁hoo": 5684,
      "▁Hen": 5685,
      "ric": 5686,
      "▁played.": 5687,
      "▁empt": 5688,
      "▁Lou": 5689,
      "▁Bow": 5690,
      "▁moms.": 5691,
      "▁roar.": 5692,
      "▁knob": 5693,
      "▁back.\"\n": 5694,
      "▁flapped": 5695,
      "▁ranch": 5696,
      "▁Mom!\"": 5697,
      "▁opened.": 5698,
      "▁nice.\"\n": 5699,
      "▁skirt": 5700,
      "▁much,": 5701,
      "▁King": 5702,
      "▁ready,": 5703,
      "▁frog,": 5704,
      "▁brain": 5705,
      "▁\"Sh": 5706,
      "▁Red": 5707,
      "▁trash": 5708,
      "▁faces.\n": 5709,
      "▁dress,": 5710,
      "▁cooking": 5711,
      "▁time.\"\n": 5712,
      "▁paid": 5713,
      "▁bedroom.": 5714,
      "▁musician": 5715,
      "▁nap.\n": 5716,
      "▁horse.": 5717,
      "▁egg.": 5718,
      "▁easy.": 5719,
      "▁corner.": 5720,
      "▁gun.": 5721,
      "▁mirror.": 5722,
      "▁crossed": 5723,
      "▁life.": 5724,
      "▁ticket": 5725,
      "▁envelope": 5726,
      "▁celery": 5727,
      "▁ahead": 5728,
      "▁Vel": 5729,
      "▁insisted": 5730,
      "▁holiday": 5731,
      "▁Rosie": 5732,
      "-c": 5733,
      "gie": 5734,
      "ude": 5735,
      "x-": 5736,
      "▁x-": 5737,
      "▁tip": 5738,
      "▁bri": 5739,
      "▁waving": 5740,
      "▁during": 5741,
      "▁cit": 5742,
      "▁cord": 5743,
      "isty": 5744,
      "▁nav": 5745,
      "▁inst": 5746,
      "▁beg": 5747,
      "▁bend": 5748,
      "▁licen": 5749,
      "▁Would": 5750,
      "▁somewhere": 5751,
      "▁box?\"": 5752,
      "▁Mom,\"": 5753,
      "▁Duck": 5754,
      "▁daddy.": 5755,
      "▁bear.\n": 5756,
      "▁teas": 5757,
      "▁snail": 5758,
      "▁\"Now,": 5759,
      "▁proudly": 5760,
      "▁beautiful.\n": 5761,
      "▁face,": 5762,
      "▁looking,": 5763,
      "▁talk.\n": 5764,
      "▁shouted.\n": 5765,
      "▁adventures.\n": 5766,
      "▁dance.\n": 5767,
      "▁woods,": 5768,
      "▁winn": 5769,
      "▁thanks": 5770,
      "▁apple,": 5771,
      "▁wags": 5772,
      "▁left.": 5773,
      "▁pen.": 5774,
      "▁wet.\n": 5775,
      "▁There,": 5776,
      "▁messy.": 5777,
      "▁air.\n": 5778,
      "▁mixer": 5779,
      "▁wish.": 5780,
      "▁Bella.": 5781,
      "▁cloth.": 5782,
      "▁sheep.": 5783,
      "▁nods": 5784,
      "▁space.": 5785,
      "▁\"Stop,": 5786,
      "▁giggled": 5787,
      "▁sunshine.": 5788,
      "▁horn.": 5789,
      "▁battery": 5790,
      "▁costume": 5791,
      "▁toilet": 5792,
      "▁James": 5793,
      "▁television": 5794,
      "▁End.\n": 5795,
      "ich.": 5796,
      "men": 5797,
      "▁sir": 5798,
      "▁by,": 5799,
      "▁low": 5800,
      "▁palm": 5801,
      "erc": 5802,
      "ers,": 5803,
      "▁gate.": 5804,
      "▁plast": 5805,
      "▁plate.": 5806,
      "▁rail": 5807,
      "▁rush": 5808,
      "▁saw.": 5809,
      "▁shore.": 5810,
      "▁Tommy.": 5811,
      "▁helpful.": 5812,
      "▁found!\"": 5813,
      "▁cared": 5814,
      "▁smiling.": 5815,
      "▁boxes.": 5816,
      "▁myself": 5817,
      "▁look.\n": 5818,
      "▁trade": 5819,
      "▁nicely": 5820,
      "▁homes.": 5821,
      "▁turn.": 5822,
      "▁turns.": 5823,
      "▁glitt": 5824,
      "irst,": 5825,
      "▁cook.": 5826,
      "▁hops": 5827,
      "▁agree": 5828,
      "▁following": 5829,
      "▁bag,": 5830,
      "ies.\n": 5831,
      "▁trains": 5832,
      "▁wear.": 5833,
      "▁fairy.": 5834,
      "▁seen.": 5835,
      "▁break.": 5836,
      "▁himself,": 5837,
      "▁Joey": 5838,
      "▁fresh": 5839,
      "▁boring.": 5840,
      "▁monkey.": 5841,
      "▁fox.": 5842,
      "▁beach,": 5843,
      "▁paws.": 5844,
      "▁\"These": 5845,
      "▁cows,": 5846,
      "▁succeed": 5847,
      "▁turtle.": 5848,
      "▁ears": 5849,
      "▁folder": 5850,
      "▁please.": 5851,
      "▁sneeze": 5852,
      "▁cherries": 5853,
      "▁frustrated": 5854,
      "▁bloom.": 5855,
      "▁\"No!": 5856,
      "▁island.": 5857,
      "▁points": 5858,
      "▁aeroplan": 5859,
      "▁guilty.": 5860,
      "▁bury": 5861,
      "▁ceiling": 5862,
      "▁riding": 5863,
      "▁later.": 5864,
      "▁pony": 5865,
      "▁pages": 5866,
      "▁\"Well,": 5867,
      "▁\"One,": 5868,
      "▁raised": 5869,
      "▁skeleton": 5870,
      "▁Maggie": 5871,
      "▁Lola": 5872,
      "▁brick": 5873,
      "..": 5874,
      "ially": 5875,
      "pare": 5876,
      "spec": 5877,
      "▁ow,": 5878,
      "▁simp": 5879,
      "▁bent": 5880,
      "ert.": 5881,
      "ari": 5882,
      "▁Hop": 5883,
      "▁Have": 5884,
      "▁Liz": 5885,
      "▁you'll": 5886,
      "unk.": 5887,
      "▁shel": 5888,
      "▁helpless": 5889,
      "▁could,": 5890,
      "▁go!\"\n": 5891,
      "▁spade": 5892,
      "▁no.\n": 5893,
      "ash.": 5894,
      "▁exerc": 5895,
      "▁copper": 5896,
      "▁yours.": 5897,
      "▁this,": 5898,
      "▁grape": 5899,
      "▁doors": 5900,
      "▁ever!\"": 5901,
      "▁wait.": 5902,
      "▁offer": 5903,
      "▁rain.\n": 5904,
      "▁boat,": 5905,
      "▁pushes": 5906,
      "▁letting": 5907,
      "▁night.\n": 5908,
      "▁adventures.": 5909,
      "▁woods.\n": 5910,
      "▁smells": 5911,
      "▁fair.": 5912,
      "▁wagging": 5913,
      "▁grandp": 5914,
      "▁wet,": 5915,
      "▁prepare": 5916,
      "▁table.\n": 5917,
      "▁Emma.": 5918,
      "apping": 5919,
      "ipping": 5920,
      "▁screamed.": 5921,
      "▁shrug": 5922,
      "▁streng": 5923,
      "▁neck.": 5924,
      "▁band-a": 5925,
      "▁\"Wow!\"": 5926,
      "▁stupid.": 5927,
      "▁apron": 5928,
      "▁shocked": 5929,
      "▁operation": 5930,
      "▁fountain.": 5931,
      "▁vehicle": 5932,
      "▁meadow": 5933,
      "▁spilled": 5934,
      "▁observe": 5935,
      "▁Smith": 5936,
      "▁available": 5937,
      "▁oxygen": 5938,
      "▁\"thank": 5939,
      "specially": 5940,
      "▁band-aid": 5941,
      "bug": 5942,
      "mare": 5943,
      "r.": 5944,
      "▁bother": 5945,
      "▁dem": 5946,
      "▁cards": 5947,
      "▁washing": 5948,
      "▁Sund": 5949,
      "▁Tim,\"": 5950,
      "▁stad": 5951,
      "▁especially": 5952,
      "ely,": 5953,
      "▁did.\n": 5954,
      "▁ree": 5955,
      "▁sad?\"\n": 5956,
      "▁starting": 5957,
      "▁scold": 5958,
      "▁excla": 5959,
      "▁greed": 5960,
      "▁Whenever": 5961,
      "▁bad,": 5962,
      "▁chess": 5963,
      "▁chest.": 5964,
      "▁quack": 5965,
      "▁people.\n": 5966,
      "▁smile,": 5967,
      "▁rain,": 5968,
      "▁\"Sara": 5969,
      "▁happily.\n": 5970,
      "▁Rock": 5971,
      "▁keeping": 5972,
      "▁story:": 5973,
      "▁deer.": 5974,
      "▁Who": 5975,
      "▁first!\"": 5976,
      "▁nightmare": 5977,
      "▁Timmy's": 5978,
      "▁steel": 5979,
      "▁crib.": 5980,
      "otten": 5981,
      "▁candle": 5982,
      "▁round.": 5983,
      "▁lives": 5984,
      "▁sudden,": 5985,
      "▁slides": 5986,
      "▁interesting.": 5987,
      "▁numbers": 5988,
      "▁pleased": 5989,
      "▁mouse,": 5990,
      "▁drum.": 5991,
      "▁diary": 5992,
      "▁sword.": 5993,
      "▁present.": 5994,
      "▁relieved.": 5995,
      "▁cactus.": 5996,
      "▁burned": 5997,
      "▁ocean.": 5998,
      "▁medicine.": 5999,
      "▁olives": 6000,
      "▁hours": 6001,
      "▁jungle.": 6002,
      "▁strawberry": 6003,
      "▁chimney": 6004,
      "▁scratch": 6005,
      "▁sniffed": 6006,
      "▁organized.": 6007,
      "▁journal": 6008,
      "▁billboard": 6009,
      "▁disagre": 6010,
      "▁laundry": 6011,
      "▁introduce": 6012,
      "▁sunglasses": 6013,
      "▁demand": 6014,
      "▁stadium": 6015,
      "▁exclaim": 6016,
      "led,": 6017,
      "oz": 6018,
      "hew": 6019,
      "hell": 6020,
      "▁bin": 6021,
      "▁Teddy": 6022,
      "▁hon": 6023,
      "▁file": 6024,
      "▁lam": 6025,
      "▁lined": 6026,
      "▁gas": 6027,
      "ath": 6028,
      "▁\"U": 6029,
      "▁it!\n": 6030,
      "▁beam": 6031,
      "▁play?\"": 6032,
      "▁Tim.\"": 6033,
      "▁Lizzy": 6034,
      "▁ones": 6035,
      "▁weather": 6036,
      "▁hadn't": 6037,
      "▁want.": 6038,
      "▁for.": 6039,
      "▁soak": 6040,
      "▁Lily?\"": 6041,
      "▁man.\n": 6042,
      "▁manage": 6043,
      "▁spike": 6044,
      "▁back.\"": 6045,
      "▁backpack": 6046,
      "▁car!": 6047,
      "▁like.": 6048,
      "▁alone,": 6049,
      "▁Fif": 6050,
      "▁blouse": 6051,
      "▁look,": 6052,
      "▁eat,": 6053,
      "▁slipper": 6054,
      "▁houses": 6055,
      "▁Everything": 6056,
      "▁Please,": 6057,
      "▁calls": 6058,
      "▁rained": 6059,
      "▁kids,": 6060,
      "▁appla": 6061,
      "▁plan.\n": 6062,
      "▁\"We're": 6063,
      "▁head,": 6064,
      "▁agreed.\n": 6065,
      "▁here!\"": 6066,
      "▁discus": 6067,
      "▁John's": 6068,
      "▁hot,": 6069,
      "▁ants.": 6070,
      "▁danced,": 6071,
      "▁cream,": 6072,
      "▁chair,": 6073,
      "▁understand?\"\n": 6074,
      "▁today.\"": 6075,
      "▁throws": 6076,
      "▁drink.": 6077,
      "▁eggs.": 6078,
      "▁Whiskers.": 6079,
      "▁shade.": 6080,
      "▁collar.": 6081,
      "▁herself.\n": 6082,
      "▁sparkly": 6083,
      "▁warned": 6084,
      "ever,": 6085,
      "▁floated": 6086,
      "▁reverse": 6087,
      "▁tornad": 6088,
      "▁microphone": 6089,
      "▁\"Ow,": 6090,
      "▁provide": 6091,
      "▁\"Ouch!\"": 6092,
      "▁unhapp": 6093,
      "▁stomach": 6094,
      "▁advice": 6095,
      "▁yacht": 6096,
      "▁Help": 6097,
      "▁empty.": 6098,
      "iat": 6099,
      "k,": 6100,
      "time": 6101,
      "▁lec": 6102,
      "▁digg": 6103,
      "▁curt": 6104,
      "ison": 6105,
      "ena": 6106,
      "▁bee.": 6107,
      "▁you?": 6108,
      "▁froz": 6109,
      "▁Max!\"": 6110,
      "▁new.\n": 6111,
      "▁expect": 6112,
      "▁chirp": 6113,
      "▁kneel": 6114,
      "▁jump.": 6115,
      "▁handle": 6116,
      "▁excited!\n": 6117,
      "▁listening": 6118,
      "▁try.\n": 6119,
      "▁glass.": 6120,
      "ction": 6121,
      "▁now?\"": 6122,
      "▁leaves.\n": 6123,
      "▁blocks.\n": 6124,
      "▁cold.\n": 6125,
      "▁ice-c": 6126,
      "▁trains.": 6127,
      "▁reach.": 6128,
      "▁dreams": 6129,
      "▁land.": 6130,
      "▁beef": 6131,
      "▁shells.": 6132,
      "▁well.\n": 6133,
      "▁hungry.\n": 6134,
      "▁banana.": 6135,
      "▁one.\"": 6136,
      "▁sandwich.": 6137,
      "▁early": 6138,
      "umber.": 6139,
      "▁pinched": 6140,
      "▁entered": 6141,
      "▁spacesh": 6142,
      "▁courage": 6143,
      "▁roared": 6144,
      "▁zoo.": 6145,
      "▁jam.": 6146,
      "▁umbrella.": 6147,
      "▁bicycle.": 6148,
      "▁understood.": 6149,
      "olly.": 6150,
      "▁prize.": 6151,
      "▁miserable.": 6152,
      "▁punished": 6153,
      "▁Sharing": 6154,
      "▁gasped": 6155,
      "▁include": 6156,
      "▁Slow": 6157,
      "▁taxi": 6158,
      "▁Velvet": 6159,
      "▁applaud": 6160,
      "▁lecture": 6161,
      "▁ice-cream": 6162,
      "'ve": 6163,
      "▁mention": 6164,
      "erry": 6165,
      "ise.": 6166,
      "▁Sque": 6167,
      "▁Harry": 6168,
      "▁station.": 6169,
      "▁lie": 6170,
      "▁upstair": 6171,
      "▁do?\"\n": 6172,
      "elcome": 6173,
      "illa": 6174,
      "▁jogg": 6175,
      "▁fun.\"": 6176,
      "▁reaches": 6177,
      "raged": 6178,
      "▁lear": 6179,
      "▁exper": 6180,
      "▁change.": 6181,
      "▁hugg": 6182,
      "▁eaten": 6183,
      "▁orang": 6184,
      "▁string.": 6185,
      "▁twisty": 6186,
      "▁cub": 6187,
      "ement.": 6188,
      "▁office.": 6189,
      "▁shouldn't": 6190,
      "bye,": 6191,
      "▁planted": 6192,
      "▁swinging": 6193,
      "▁here.\"": 6194,
      "▁bushes.": 6195,
      "▁delay": 6196,
      "▁shoes,": 6197,
      "▁bit.": 6198,
      "▁lion,": 6199,
      "▁art": 6200,
      "▁fallen": 6201,
      "▁arms.": 6202,
      "▁gently.": 6203,
      "▁bored": 6204,
      "▁creative.": 6205,
      "▁princess.": 6206,
      "▁kicking": 6207,
      "▁bringing": 6208,
      "▁Lisa.": 6209,
      "olog": 6210,
      "▁letter.": 6211,
      "▁sparkled": 6212,
      "▁tricks.": 6213,
      "▁sugar.": 6214,
      "▁pancake": 6215,
      "▁sneak": 6216,
      "▁jewelry": 6217,
      "▁map.": 6218,
      "▁\"Stop!": 6219,
      "▁moving.": 6220,
      "▁notebook.": 6221,
      "▁searching": 6222,
      "ween": 6223,
      "▁apolog": 6224,
      "▁life.\n": 6225,
      "▁opera": 6226,
      "▁porch.": 6227,
      "▁stream.": 6228,
      "▁themselves": 6229,
      "▁sighed.": 6230,
      "▁urge": 6231,
      "▁permit": 6232,
      "▁suffer": 6233,
      "▁between": 6234,
      "▁wobb": 6235,
      "▁summer": 6236,
      "▁oyster": 6237,
      "keeper": 6238,
      "▁curtain": 6239,
      "-l": 6240,
      "fl": 6241,
      "ived": 6242,
      "▁tuck": 6243,
      "▁base": 6244,
      "▁line.": 6245,
      "▁city": 6246,
      "ides": 6247,
      "▁gor": 6248,
      "oral": 6249,
      "▁plates": 6250,
      "▁placed": 6251,
      "▁Bunny.": 6252,
      "▁An": 6253,
      "▁socc": 6254,
      "▁Tom,\"": 6255,
      "ely.": 6256,
      "▁release": 6257,
      "▁spit": 6258,
      "▁car?\"": 6259,
      "▁nobody": 6260,
      "▁small.\n": 6261,
      "▁\"To": 6262,
      "▁flap": 6263,
      "▁cozy.": 6264,
      "▁mudd": 6265,
      "▁\"Woof": 6266,
      "▁more,": 6267,
      "▁Each": 6268,
      "▁look!": 6269,
      "▁happening": 6270,
      "▁moon.": 6271,
      "▁animal.": 6272,
      "▁bear!": 6273,
      "▁Sara,": 6274,
      "▁comf": 6275,
      "▁ended": 6276,
      "▁louder": 6277,
      "▁people's": 6278,
      "▁hats.": 6279,
      "▁traff": 6280,
      "▁sound.\n": 6281,
      "▁bags": 6282,
      "▁Timmy,": 6283,
      "▁zipper": 6284,
      "▁dance,": 6285,
      "▁amazing.": 6286,
      "▁win,": 6287,
      "▁laughs": 6288,
      "▁doing?\"\n": 6289,
      "▁Charl": 6290,
      "▁lesson.\n": 6291,
      "▁pastel": 6292,
      "▁kitten.": 6293,
      "▁stones.": 6294,
      "▁questions": 6295,
      "▁waffles": 6296,
      "▁foot.": 6297,
      "▁hello.": 6298,
      "▁asking.": 6299,
      "▁disappeared": 6300,
      "▁wandered": 6301,
      "▁bubbles.": 6302,
      "▁classroom": 6303,
      "▁fridge.": 6304,
      "▁themselves.": 6305,
      "▁encouraged": 6306,
      "▁stove.": 6307,
      "▁camera.": 6308,
      "▁itself.": 6309,
      "▁mattre": 6310,
      "▁either.": 6311,
      "▁increase": 6312,
      "▁grocery": 6313,
      "▁padd": 6314,
      "▁mechanic": 6315,
      "▁plastic": 6316,
      "▁tornado": 6317,
      "bour": 6318,
      "ester": 6319,
      "pted": 6320,
      "▁sing,": 6321,
      "▁baking": 6322,
      "▁Tues": 6323,
      "▁mama": 6324,
      "▁heat": 6325,
      "▁be.\n": 6326,
      "▁play.\"": 6327,
      "▁day.\"\n": 6328,
      "▁rake": 6329,
      "▁equ": 6330,
      "una.": 6331,
      "▁friend?\"": 6332,
      "▁weak.": 6333,
      "▁had.\n": 6334,
      "▁Ad": 6335,
      "▁shy.": 6336,
      "▁mom.\"\n": 6337,
      "▁little.": 6338,
      "▁sadly": 6339,
      "▁Sam!\"": 6340,
      "▁started,": 6341,
      "▁smiling.\n": 6342,
      "▁again!": 6343,
      "▁blink": 6344,
      "▁laught": 6345,
      "▁happy.\"": 6346,
      "▁vase.": 6347,
      "▁best.\n": 6348,
      "▁Lila.": 6349,
      "▁skill": 6350,
      "▁shined": 6351,
      "▁pretty!\"\n": 6352,
      "▁food.\"": 6353,
      "▁share,": 6354,
      "▁book.\n": 6355,
      "▁\"Not": 6356,
      "▁hurt,": 6357,
      "▁fly.\n": 6358,
      "▁loud,": 6359,
      "▁Pap": 6360,
      "▁off.\n": 6361,
      "▁Joe.": 6362,
      "▁stick,": 6363,
      "▁truck.\n": 6364,
      "▁drain": 6365,
      "▁leave.": 6366,
      "▁pain.": 6367,
      "▁hopes": 6368,
      "▁first.\n": 6369,
      "▁first.\"": 6370,
      "▁remember,": 6371,
      "▁floor,": 6372,
      "▁goodbye.\n": 6373,
      "▁clapping": 6374,
      "▁safely": 6375,
      "▁win.\n": 6376,
      "▁Jane's": 6377,
      "▁cupboard.": 6378,
      "▁swamp.": 6379,
      "▁colorful.": 6380,
      "▁round,": 6381,
      "▁\"And": 6382,
      "▁today.\"\n": 6383,
      "▁Leo.": 6384,
      "▁brings": 6385,
      "▁welcomed": 6386,
      "▁cheese,": 6387,
      "▁buttons": 6388,
      "▁jokes": 6389,
      "▁folded": 6390,
      "▁along.": 6391,
      "▁Doggy,": 6392,
      "▁escape.": 6393,
      "▁flag.": 6394,
      "▁Sometimes,": 6395,
      "▁half.": 6396,
      "▁piano.": 6397,
      "▁argue": 6398,
      "▁grapes": 6399,
      "▁encourage": 6400,
      "▁yawned": 6401,
      "▁chimney.": 6402,
      "▁forth.": 6403,
      "▁Fox": 6404,
      "▁squeezed": 6405,
      "▁recognize": 6406,
      "▁chamber": 6407,
      "▁x-ray": 6408,
      "ey.": 6409,
      "ib": 6410,
      "ux": 6411,
      "▁tide": 6412,
      "▁set.": 6413,
      "▁and,": 6414,
      "▁hedge.": 6415,
      "▁be.": 6416,
      "▁plays": 6417,
      "oo!\"": 6418,
      "▁rul": 6419,
      "▁Is": 6420,
      "▁stage.": 6421,
      "▁Bo": 6422,
      "▁times": 6423,
      "▁board.": 6424,
      "▁Its": 6425,
      "▁seed.": 6426,
      "▁friends?\"": 6427,
      "▁alive": 6428,
      "▁scary,": 6429,
      "▁find.": 6430,
      "▁times.": 6431,
      "▁Lucy!": 6432,
      "▁running,": 6433,
      "▁bear's": 6434,
      "▁hand,": 6435,
      "▁special,": 6436,
      "▁climbs": 6437,
      "▁buried": 6438,
      "▁inside!": 6439,
      "▁stickers": 6440,
      "▁shiny.\n": 6441,
      "▁stronger.": 6442,
      "▁green,": 6443,
      "▁can't.": 6444,
      "▁owner,": 6445,
      "▁dishes": 6446,
      "▁draw.": 6447,
      "▁wood.": 6448,
      "▁owl,": 6449,
      "ation.\n": 6450,
      "▁sits": 6451,
      "▁vel": 6452,
      "▁gentle.": 6453,
      "▁landscap": 6454,
      "▁name?\"": 6455,
      "▁snowball": 6456,
      "▁Zara": 6457,
      "▁nap,": 6458,
      "▁created": 6459,
      "▁river,": 6460,
      "▁bikes": 6461,
      "▁snacks.": 6462,
      "▁carrot.": 6463,
      "▁warn": 6464,
      "▁meeting": 6465,
      "▁hanger": 6466,
      "▁path,": 6467,
      "▁vanish": 6468,
      "▁Ste": 6469,
      "▁seek,": 6470,
      "▁\"Help!": 6471,
      "▁\"Yes!\"": 6472,
      "▁triangle.": 6473,
      "▁hamm": 6474,
      "▁expensive.": 6475,
      "▁Danny": 6476,
      "▁guitar.": 6477,
      "▁accepted": 6478,
      "▁playground.": 6479,
      "▁oats": 6480,
      "▁factory.": 6481,
      "▁puppy.": 6482,
      "▁truth": 6483,
      "▁Here,": 6484,
      "▁scooter": 6485,
      "▁hunter": 6486,
      "mediat": 6487,
      "▁embarrassed.": 6488,
      "▁snuggled": 6489,
      "▁hoop.": 6490,
      "▁Henry": 6491,
      "▁shelter": 6492,
      "▁strength": 6493,
      "e!\"": 6494,
      "wal": 6495,
      "▁ow": 6496,
      "▁tin": 6497,
      "▁tent.": 6498,
      "▁wigg": 6499,
      "▁to.\n": 6500,
      "▁fed": 6501,
      "▁fet": 6502,
      "▁lang": 6503,
      "▁lugg": 6504,
      "▁dare": 6505,
      "▁dang": 6506,
      "▁Su": 6507,
      "anc": 6508,
      "▁Happy": 6509,
      "▁happier": 6510,
      "▁doing.": 6511,
      "▁Abb": 6512,
      "▁too?\"\n": 6513,
      "▁help.\"": 6514,
      "▁all!": 6515,
      "▁sea,": 6516,
      "▁fash": 6517,
      "▁flam": 6518,
      "▁\"Will": 6519,
      "▁Mia.\n": 6520,
      "▁again!\"": 6521,
      "▁lotion": 6522,
      "▁vine.": 6523,
      "▁\"Luc": 6524,
      "▁jumping.": 6525,
      "▁tree.\"\n": 6526,
      "▁slap": 6527,
      "▁love.\n": 6528,
      "▁hurting": 6529,
      "▁quite": 6530,
      "▁frogs": 6531,
      "▁nowhere": 6532,
      "▁closer.\n": 6533,
      "▁trap.": 6534,
      "▁Fluffy,": 6535,
      "▁toy.\"\n": 6536,
      "▁worked.": 6537,
      "▁brightly": 6538,
      "▁important.\n": 6539,
      "▁paper.\n": 6540,
      "▁zigzag": 6541,
      "▁farm.\n": 6542,
      "▁sky!": 6543,
      "▁bath.": 6544,
      "▁safari": 6545,
      "▁cups": 6546,
      "ation,": 6547,
      "▁ladybug": 6548,
      "▁job.\n": 6549,
      "▁delicious.": 6550,
      "▁sail.": 6551,
      "▁freeze": 6552,
      "▁bigger!": 6553,
      "▁queen.": 6554,
      "▁attached": 6555,
      "▁sprink": 6556,
      "▁pigs,": 6557,
      "▁fit.": 6558,
      "▁answered": 6559,
      "▁Mark.": 6560,
      "▁circles": 6561,
      "▁heart.\n": 6562,
      "▁splashing": 6563,
      "▁screen.": 6564,
      "▁finger.": 6565,
      "▁zoomed": 6566,
      "▁movie.": 6567,
      "▁prunes": 6568,
      "▁relax.": 6569,
      "▁vegetables.": 6570,
      "▁bouncing": 6571,
      "▁anxious.": 6572,
      "▁independent.": 6573,
      "▁stairs": 6574,
      "▁factory": 6575,
      "▁instr": 6576,
      "▁discuss": 6577,
      "▁learnt": 6578,
      "▁langu": 6579,
      "-y": 6580,
      "aved": 6581,
      "ber.": 6582,
      "ward.": 6583,
      "▁tut": 6584,
      "▁tong": 6585,
      "▁lime": 6586,
      "▁wast": 6587,
      "ome,": 6588,
      "ared": 6589,
      "▁hated": 6590,
      "ory.": 6591,
      "▁event": 6592,
      "vest": 6593,
      "▁Boo": 6594,
      "▁Moral": 6595,
      "▁that!\"": 6596,
      "▁shed": 6597,
      "▁there.\"\n": 6598,
      "▁whip": 6599,
      "▁help.\"\n": 6600,
      "▁them.\"": 6601,
      "▁Wally": 6602,
      "ult.": 6603,
      "▁clay.": 6604,
      "▁Ben,\"": 6605,
      "▁scoop": 6606,
      "▁other.\"\n": 6607,
      "▁First,": 6608,
      "▁worth": 6609,
      "▁vroom": 6610,
      "▁show,": 6611,
      "▁skin.": 6612,
      "▁rocket.": 6613,
      "▁bears": 6614,
      "▁kindnes": 6615,
      "▁come.": 6616,
      "▁trying,": 6617,
      "▁careful.\"": 6618,
      "▁famil": 6619,
      "▁glue.": 6620,
      "▁smiles.\n": 6621,
      "▁stronger": 6622,
      "▁Finny": 6623,
      "▁eye": 6624,
      "▁Good": 6625,
      "▁talk,": 6626,
      "▁lets": 6627,
      "▁funny.\n": 6628,
      "▁ice.": 6629,
      "▁crow": 6630,
      "▁cras": 6631,
      "▁shoe.": 6632,
      "▁wall.\n": 6633,
      "▁castles": 6634,
      "▁content": 6635,
      "▁grow.\n": 6636,
      "▁gues": 6637,
      "▁puddles": 6638,
      "▁dirty.\n": 6639,
      "▁beach.\n": 6640,
      "▁laughing.\n": 6641,
      "▁tape.": 6642,
      "▁carrots.": 6643,
      "▁scream.": 6644,
      "▁jokes.": 6645,
      "▁seeds.": 6646,
      "▁boot.": 6647,
      "▁sunflower.": 6648,
      "▁statue.": 6649,
      "▁motorcycle.": 6650,
      "▁soap.": 6651,
      "▁minutes,": 6652,
      "▁crack.": 6653,
      "▁mushroom.": 6654,
      "▁tag.": 6655,
      "▁ignored": 6656,
      "▁frightened.": 6657,
      "▁checked": 6658,
      "▁tunnel.": 6659,
      "▁delighted": 6660,
      "▁persistent.": 6661,
      "▁ceiling.": 6662,
      "▁settle": 6663,
      "▁suggested": 6664,
      "▁measured": 6665,
      "▁newspaper": 6666,
      "▁Maria": 6667,
      "▁coffee": 6668,
      "▁celebrated": 6669,
      "▁navy": 6670,
      "▁Fifi": 6671,
      "▁gorilla": 6672,
      "▁Charlie": 6673,
      "▁equip": 6674,
      "uxur": 6675,
      "▁tutor": 6676,
      "?\n": 6677,
      "s!\"\n": 6678,
      "▁sigh": 6679,
      "▁wife": 6680,
      "▁ble": 6681,
      "▁Tw": 6682,
      "▁furt": 6683,
      "ater.": 6684,
      "▁Lilly": 6685,
      "▁weight": 6686,
      "▁note.": 6687,
      "itty,": 6688,
      "▁Ab": 6689,
      "▁Tom?\"": 6690,
      "▁body.": 6691,
      "▁birdc": 6692,
      "▁allow": 6693,
      "▁go.\"\n": 6694,
      "▁rose.": 6695,
      "▁knif": 6696,
      "▁out!\"": 6697,
      "▁loved.": 6698,
      "▁meowed": 6699,
      "▁exit": 6700,
      "▁rang": 6701,
      "▁\"Yay": 6702,
      "▁nice.\"": 6703,
      "▁Fred.": 6704,
      "▁Chew": 6705,
      "▁watches": 6706,
      "▁walked.": 6707,
      "▁cake!": 6708,
      "▁immediat": 6709,
      "▁far,": 6710,
      "▁loud.\n": 6711,
      "▁Pat": 6712,
      "▁stick.\n": 6713,
      "▁planes": 6714,
      "▁catch.": 6715,
      "▁catching": 6716,
      "▁yellow,": 6717,
      "▁Fluffy's": 6718,
      "▁hiding.": 6719,
      "▁sing.\n": 6720,
      "▁before,": 6721,
      "▁pieces.\n": 6722,
      "▁creek.": 6723,
      "▁says:": 6724,
      "▁time.\"": 6725,
      "▁sweetie.": 6726,
      "▁broken,": 6727,
      "▁danced.": 6728,
      "▁anymore.\"": 6729,
      "▁quickly.": 6730,
      "▁smelly.": 6731,
      "▁cries": 6732,
      "▁cries.\n": 6733,
      "▁nest,": 6734,
      "▁nest.\n": 6735,
      "▁breaks": 6736,
      "▁name?\"\n": 6737,
      "▁sailing": 6738,
      "▁honest.": 6739,
      "▁free.\n": 6740,
      "▁parents.": 6741,
      "▁lonely.\n": 6742,
      "▁stand.": 6743,
      "▁missing": 6744,
      "▁enough.": 6745,
      "▁sidewal": 6746,
      "▁mouth.\n": 6747,
      "▁Blue.": 6748,
      "▁instead.\n": 6749,
      "▁ugly.": 6750,
      "▁teaching": 6751,
      "▁bark.": 6752,
      "▁Chirpy.": 6753,
      "▁questions.": 6754,
      "▁mystery": 6755,
      "▁chewed": 6756,
      "▁fishing": 6757,
      "▁neighbour": 6758,
      "▁impressed": 6759,
      "▁decoration": 6760,
      "▁rod.": 6761,
      "▁bitter.": 6762,
      "▁log.": 6763,
      "▁respectful": 6764,
      "▁network": 6765,
      "▁toast.": 6766,
      "▁yogurt.": 6767,
      "▁tools": 6768,
      "▁pants.": 6769,
      "▁maze.": 6770,
      "▁sorts": 6771,
      "▁disappointed.": 6772,
      "▁garage": 6773,
      "▁lucky.": 6774,
      "▁Ruby": 6775,
      "▁true.\n": 6776,
      "▁Snowman": 6777,
      "▁flour,": 6778,
      "▁anyway.": 6779,
      "▁collected": 6780,
      "▁Squeaky": 6781,
      "▁baseball": 6782,
      "-year": 6783,
      "ean": 6784,
      "hood": 6785,
      "ible.": 6786,
      "row,": 6787,
      "sity": 6788,
      "tim": 6789,
      "hest": 6790,
      "▁sire": 6791,
      "▁bang": 6792,
      "▁tonight": 6793,
      "rec": 6794,
      "▁cust": 6795,
      "▁goo": 6796,
      "orn,": 6797,
      "▁ink": 6798,
      "▁us.\"": 6799,
      "▁oh": 6800,
      "▁Lucky": 6801,
      "▁big.\n": 6802,
      "▁By": 6803,
      "unat": 6804,
      "▁friend?\"\n": 6805,
      "▁up!": 6806,
      "▁ship.": 6807,
      "▁soil": 6808,
      "▁help?\"": 6809,
      "▁together?\"": 6810,
      "▁toy!\"": 6811,
      "▁toy?\"": 6812,
      "▁them,\"": 6813,
      "um,": 6814,
      "▁back!": 6815,
      "▁Ben!\"": 6816,
      "▁scr": 6817,
      "▁scale.": 6818,
      "▁cart.": 6819,
      "▁For": 6820,
      "▁coal": 6821,
      "▁Mom's": 6822,
      "▁Momo.": 6823,
      "▁prett": 6824,
      "▁sorting": 6825,
      "▁tower.\n": 6826,
      "▁Cla": 6827,
      "▁struck": 6828,
      "▁We'll": 6829,
      "▁glow.": 6830,
      "▁ever!\n": 6831,
      "▁angry,": 6832,
      "▁morning.": 6833,
      "▁breaking": 6834,
      "▁blocks,": 6835,
      "▁mean,": 6836,
      "▁behaved": 6837,
      "▁bunny,": 6838,
      "▁restore": 6839,
      "▁bag.\n": 6840,
      "▁stop,": 6841,
      "▁songs.\n": 6842,
      "▁bites": 6843,
      "▁cream.\n": 6844,
      "▁words.\n": 6845,
      "▁country": 6846,
      "▁contain": 6847,
      "▁setting": 6848,
      "▁fan.": 6849,
      "▁pastry.": 6850,
      "▁power.": 6851,
      "▁petal": 6852,
      "▁talking.": 6853,
      "▁done.\n": 6854,
      "▁desk.": 6855,
      "▁birthday,": 6856,
      "▁splash.": 6857,
      "▁grateful.": 6858,
      "▁lake,": 6859,
      "▁question.": 6860,
      "▁socks": 6861,
      "▁solved": 6862,
      "▁feathers.": 6863,
      "▁yourself.": 6864,
      "▁berries.": 6865,
      "▁minutes": 6866,
      "▁tomorrow.\n": 6867,
      "▁quarrel.": 6868,
      "▁mailbox.": 6869,
      "▁oasis.": 6870,
      "▁brush.": 6871,
      "▁receive": 6872,
      "▁received": 6873,
      "▁whispered,": 6874,
      "▁Quack": 6875,
      "▁axe": 6876,
      "▁sandcastle": 6877,
      "▁Skip": 6878,
      "▁scolded": 6879,
      "▁unhappy.": 6880,
      "▁Papa": 6881,
      "▁\"Lucy,": 6882,
      "▁further": 6883,
      "▁siren": 6884,
      "▁custom": 6885,
      "▁Claire": 6886,
      "-old": 6887,
      "nce": 6888,
      "oe": 6889,
      "ther": 6890,
      "xture": 6891,
      "▁tore": 6892,
      "▁lung": 6893,
      "▁dried": 6894,
      "ery.": 6895,
      "ishing": 6896,
      "▁gust": 6897,
      "▁play.\"\n": 6898,
      "▁sty": 6899,
      "▁stable": 6900,
      "▁Later": 6901,
      "▁Lena": 6902,
      "▁friend,\"": 6903,
      "▁May": 6904,
      "▁shower": 6905,
      "▁somed": 6906,
      "!\".\n": 6907,
      "ect.": 6908,
      "▁out!": 6909,
      "▁Wigg": 6910,
      "▁score": 6911,
      "▁car.\"\n": 6912,
      "▁becom": 6913,
      "▁makeup.": 6914,
      "▁see.\n": 6915,
      "▁laser": 6916,
      "▁away.\"": 6917,
      "▁ranch.": 6918,
      "▁learn.": 6919,
      "▁Mom?\"": 6920,
      "▁Day": 6921,
      "▁vac": 6922,
      "▁vict": 6923,
      "▁careless.": 6924,
      "▁poking": 6925,
      "antly": 6926,
      "▁this!\"": 6927,
      "▁fast!\"": 6928,
      "▁rock!\"": 6929,
      "▁how.": 6930,
      "▁texture": 6931,
      "▁window,": 6932,
      "▁Amy,": 6933,
      "▁cake!\"": 6934,
      "▁ever!\"\n": 6935,
      "▁waited,": 6936,
      "▁frog!": 6937,
      "▁great,": 6938,
      "▁picture.\n": 6939,
      "▁apprec": 6940,
      "▁Thom": 6941,
      "▁boats.": 6942,
      "▁pulling": 6943,
      "▁Whist": 6944,
      "▁follows": 6945,
      "▁noises.\n": 6946,
      "▁busy.": 6947,
      "▁rubb": 6948,
      "▁shout.": 6949,
      "▁us!\"": 6950,
      "▁us?\"": 6951,
      "▁difference": 6952,
      "▁Mommy,": 6953,
      "▁cool.\n": 6954,
      "▁another.": 6955,
      "▁dancing.": 6956,
      "▁pushed,": 6957,
      "▁paused": 6958,
      "▁brothers.": 6959,
      "▁laughs.": 6960,
      "▁blackboard.": 6961,
      "▁explore.\n": 6962,
      "▁Zigzag": 6963,
      "▁safe.\"": 6964,
      "▁dirty,": 6965,
      "▁well,": 6966,
      "▁Lee": 6967,
      "▁windows": 6968,
      "▁Ella.": 6969,
      "▁choice": 6970,
      "▁pile.": 6971,
      "▁dry.\n": 6972,
      "▁letters": 6973,
      "▁grandma,": 6974,
      "▁joke.": 6975,
      "▁\"Goodbye,": 6976,
      "▁lemon.": 6977,
      "▁ears.": 6978,
      "▁salad.": 6979,
      "▁barks": 6980,
      "▁lunch,": 6981,
      "▁invitation": 6982,
      "▁tomorrow.": 6983,
      "▁surround": 6984,
      "▁Someone": 6985,
      "▁afraid.": 6986,
      "▁jealous.": 6987,
      "▁creatures": 6988,
      "▁frowned.": 6989,
      "▁turn,": 6990,
      "▁computer.": 6991,
      "▁hours,": 6992,
      "▁universit": 6993,
      "▁university": 6994,
      "▁destroyed": 6995,
      "▁bookcase.": 6996,
      "▁jungle": 6997,
      "▁happines": 6998,
      "▁shivering": 6999,
      "▁broccoli.": 7000,
      "▁hospital.": 7001,
      "▁journal.": 7002,
      "▁Uncle": 7003,
      "▁Bounce": 7004,
      "▁studied": 7005,
      "▁breakfast.": 7006,
      "▁\"Kitty,": 7007,
      "▁Remy.": 7008,
      "▁wardrobe": 7009,
      "▁\"Ready,": 7010,
      "▁Millie": 7011,
      "▁\"Sara,": 7012,
      "▁slippery.": 7013,
      "▁digging": 7014,
      "▁hugged.": 7015,
      "▁hammer.": 7016,
      "m,": 7017,
      "sy.": 7018,
      "▁tuna": 7019,
      "▁fut": 7020,
      "▁card.": 7021,
      "▁pra": 7022,
      "▁mice": 7023,
      "orted": 7024,
      "▁invest": 7025,
      "▁Out": 7026,
      "▁row": 7027,
      "▁stirr": 7028,
      "▁Both": 7029,
      "▁friend!\"": 7030,
      "▁Mitten": 7031,
      "▁up.\"": 7032,
      "▁Am": 7033,
      "▁shot": 7034,
      "▁helper": 7035,
      "▁junk.": 7036,
      "▁fun,\"": 7037,
      "▁seat.": 7038,
      "▁ball.\"\n": 7039,
      "▁cliff": 7040,
      "▁class.": 7041,
      "?\".": 7042,
      "ase,": 7043,
      "▁meow": 7044,
      "▁mad.\n": 7045,
      "▁Spl": 7046,
      "▁thing,": 7047,
      "▁something,": 7048,
      "▁box!": 7049,
      "▁nice!\"": 7050,
      "▁older": 7051,
      "▁twink": 7052,
      "▁climbed,": 7053,
      "▁\"Next": 7054,
      "▁bubb": 7055,
      "▁turning": 7056,
      "▁over.\n": 7057,
      "▁image": 7058,
      "▁still.": 7059,
      "▁wait.\n": 7060,
      "▁\"Surpris": 7061,
      "▁pictures.\n": 7062,
      "▁Rose": 7063,
      "▁boat.\n": 7064,
      "▁closed.": 7065,
      "▁looking.": 7066,
      "▁fire.\n": 7067,
      "▁sand.\n": 7068,
      "▁real.": 7069,
      "▁bright.\n": 7070,
      "▁Dolly": 7071,
      "▁cutting": 7072,
      "▁stop!\"": 7073,
      "▁crunch": 7074,
      "▁us!\"\n": 7075,
      "▁farmer.": 7076,
      "▁pretend.": 7077,
      "▁please!": 7078,
      "▁please!\"\n": 7079,
      "▁sometimes.": 7080,
      "▁replied.\n": 7081,
      "▁perfum": 7082,
      "▁count.": 7083,
      "▁delici": 7084,
      "▁mum.": 7085,
      "▁prepar": 7086,
      "▁resp": 7087,
      "▁wheat.": 7088,
      "▁gift.\n": 7089,
      "▁butterfly!": 7090,
      "▁castle,": 7091,
      "▁tap.": 7092,
      "▁mother.": 7093,
      "fortunat": 7094,
      "▁sub": 7095,
      "▁herself,": 7096,
      "▁crab.": 7097,
      "▁bananas": 7098,
      "▁teacher.": 7099,
      "▁else.\n": 7100,
      "▁enter": 7101,
      "▁jewelry.": 7102,
      "▁chocolate.": 7103,
      "▁wisdom": 7104,
      "▁racing": 7105,
      "▁generous.": 7106,
      "▁apart": 7107,
      "▁tooth.": 7108,
      "▁straight": 7109,
      "▁avocado.": 7110,
      "▁disappeared.": 7111,
      "▁carpet.": 7112,
      "▁four,": 7113,
      "▁sugar,": 7114,
      "▁stairs.": 7115,
      "▁argue.": 7116,
      "▁bathrobe.": 7117,
      "▁course!": 7118,
      "▁uncomfortable.": 7119,
      "▁friendship.\n": 7120,
      "▁gasped.": 7121,
      "▁peppers": 7122,
      "▁microscope.": 7123,
      "▁lawn.": 7124,
      "▁grown-up": 7125,
      "▁dictionary": 7126,
      "▁distance.": 7127,
      "▁sunrise": 7128,
      "▁Julie": 7129,
      "ricane": 7130,
      "▁aeroplane.": 7131,
      "hello": 7132,
      "▁experience": 7133,
      "▁tucked": 7134,
      "▁Adam": 7135,
      "▁tiny,": 7136,
      "▁immediately": 7137,
      "▁future": 7138,
      "est.": 7139,
      "opp": 7140,
      "ring": 7141,
      "▁since": 7142,
      "▁wink": 7143,
      "▁wine": 7144,
      "▁Tilly": 7145,
      "▁luxur": 7146,
      "▁cow,": 7147,
      "▁hesit": 7148,
      "▁Sun": 7149,
      "▁See": 7150,
      "ating": 7151,
      "▁us,": 7152,
      "▁with,": 7153,
      "▁yes.\n": 7154,
      "▁hero.": 7155,
      "▁ear.": 7156,
      "▁not.\n": 7157,
      "▁that.\n": 7158,
      "▁there!": 7159,
      "▁were.": 7160,
      "▁isn't": 7161,
      "▁ate,": 7162,
      "▁cats.": 7163,
      "▁friends!": 7164,
      "▁can,": 7165,
      "▁frost": 7166,
      "▁known": 7167,
      "▁\"I'll": 7168,
      "▁Sue!\"": 7169,
      "▁something.\n": 7170,
      "▁Spot!\"": 7171,
      "iff.": 7172,
      "▁watered": 7173,
      "▁this?\"\n": 7174,
      "▁faster.\n": 7175,
      "▁towel.": 7176,
      "▁underground": 7177,
      "▁handle.": 7178,
      "▁home!\"": 7179,
      "▁kind.\"\n": 7180,
      "▁excitedly": 7181,
      "▁test.": 7182,
      "▁bug!": 7183,
      "▁story.\n": 7184,
      "▁snapped": 7185,
      "▁end.": 7186,
      "▁harder.": 7187,
      "▁opened!": 7188,
      "▁Puff": 7189,
      "▁officer": 7190,
      "▁Kitty,": 7191,
      "▁sticky.": 7192,
      "▁Finn": 7193,
      "▁Gog": 7194,
      "▁fixed.": 7195,
      "▁here?\"\n": 7196,
      "▁singing.\n": 7197,
      "▁store.\n": 7198,
      "▁us?\"\n": 7199,
      "▁crash": 7200,
      "▁goodbye,": 7201,
      "▁math": 7202,
      "▁Lila,": 7203,
      "▁falling": 7204,
      "▁air,": 7205,
      "▁hits": 7206,
      "▁Daisy's": 7207,
      "▁signs": 7208,
      "▁deeper": 7209,
      "▁Zeb": 7210,
      "▁attention": 7211,
      "▁window.\n": 7212,
      "▁cows": 7213,
      "▁mailman": 7214,
      "▁buttons.": 7215,
      "▁problem.\n": 7216,
      "▁one.\"\n": 7217,
      "▁lock.": 7218,
      "▁medal.": 7219,
      "▁warning": 7220,
      "▁\"Re": 7221,
      "▁wheels": 7222,
      "▁please,": 7223,
      "▁spoiled.": 7224,
      "▁spider.": 7225,
      "▁golden": 7226,
      "▁marching": 7227,
      "▁muffin.": 7228,
      "▁However,": 7229,
      "▁crown.": 7230,
      "▁flute.": 7231,
      "ollie": 7232,
      "▁wand.": 7233,
      "▁muffins": 7234,
      "▁library.": 7235,
      "▁track.": 7236,
      "▁picnic.": 7237,
      "▁mill.": 7238,
      "▁blowing": 7239,
      "▁silence": 7240,
      "▁sauce.": 7241,
      "▁crystal.": 7242,
      "▁grapes.": 7243,
      "▁sink.": 7244,
      "▁twirl": 7245,
      "▁truth.": 7246,
      "▁butterflies": 7247,
      "▁history": 7248,
      "▁revealed": 7249,
      "▁sausage": 7250,
      "▁winner": 7251,
      "▁simple": 7252,
      "▁Abbie": 7253,
      "▁investig": 7254,
      "'s.": 7255,
      "mother": 7256,
      "oke": 7257,
      "rist": 7258,
      "sing": 7259,
      "va": 7260,
      "▁hay.": 7261,
      "rew": 7262,
      "▁cow.": 7263,
      "▁pet.": 7264,
      "▁page": 7265,
      "ayb": 7266,
      "onn": 7267,
      "▁us,\"": 7268,
      "▁yet": 7269,
      "▁stare": 7270,
      "▁do.\"\n": 7271,
      "▁that!": 7272,
      "chie": 7273,
      "▁all,": 7274,
      "▁jet.": 7275,
      "▁jazz": 7276,
      "▁cat!\"": 7277,
      "▁cane.": 7278,
      "▁cliff.": 7279,
      "▁stars,": 7280,
      "▁car.\"": 7281,
      "▁seeing": 7282,
      "elly": 7283,
      "▁good!\"": 7284,
      "ooking": 7285,
      "▁again!\n": 7286,
      "▁blood": 7287,
      "aby": 7288,
      "▁Mom.\"": 7289,
      "▁Bob.\n": 7290,
      "▁open,": 7291,
      "▁Andrew": 7292,
      "▁rooms": 7293,
      "▁jumped.": 7294,
      "▁Ann.": 7295,
      "▁nice!\"\n": 7296,
      "▁slowl": 7297,
      "▁slapped": 7298,
      "▁happened,": 7299,
      "▁happening.": 7300,
      "▁orange.": 7301,
      "▁Frog": 7302,
      "▁Frogg": 7303,
      "▁\"Mayb": 7304,
      "▁\"Or": 7305,
      "▁books.\n": 7306,
      "▁grin": 7307,
      "▁grant": 7308,
      "▁sharp.": 7309,
      "▁loudly": 7310,
      "▁loudly.": 7311,
      "▁parad": 7312,
      "▁stay.": 7313,
      "▁doll.\n": 7314,
      "▁truck,": 7315,
      "▁trave": 7316,
      "▁ways.": 7317,
      "▁fine.": 7318,
      "less,": 7319,
      "▁drinking": 7320,
      "▁firef": 7321,
      "▁okay.\n": 7322,
      "▁going.\n": 7323,
      "▁inside.\"\n": 7324,
      "▁tall,": 7325,
      "▁own.": 7326,
      "▁forgotten": 7327,
      "▁papers": 7328,
      "▁tail,": 7329,
      "▁moves": 7330,
      "▁tasty.": 7331,
      "▁different,": 7332,
      "▁sweethe": 7333,
      "▁anymore.\"\n": 7334,
      "▁grandmother": 7335,
      "▁break.\n": 7336,
      "▁candles": 7337,
      "▁Jenna": 7338,
      "▁wings,": 7339,
      "▁river.\n": 7340,
      "▁quiet,": 7341,
      "▁castle.\n": 7342,
      "▁coats": 7343,
      "▁Molly's": 7344,
      "▁arrive": 7345,
      "▁\"OK!\"": 7346,
      "▁Whiskers,": 7347,
      "▁healthy.": 7348,
      "▁elephant.": 7349,
      "▁coins.": 7350,
      "▁locked.": 7351,
      "▁pocket.\n": 7352,
      "▁sliding": 7353,
      "▁please.\"": 7354,
      "▁Ollie.": 7355,
      "▁baked": 7356,
      "▁tears.": 7357,
      "▁Cat,": 7358,
      "▁God": 7359,
      "▁zoo,": 7360,
      "▁successful.": 7361,
      "▁stuffed": 7362,
      "▁pencil.": 7363,
      "▁dinosaur.": 7364,
      "▁asleep.\n": 7365,
      "▁team.": 7366,
      "▁acorn.": 7367,
      "▁foolish.": 7368,
      "▁unlocked": 7369,
      "▁rug.": 7370,
      "▁telephone.": 7371,
      "▁radio.": 7372,
      "▁accident.": 7373,
      "▁melt.": 7374,
      "▁trouble.\n": 7375,
      "▁missile.": 7376,
      "▁sneezed": 7377,
      "▁wool.": 7378,
      "▁fireworks": 7379,
      "▁hook.": 7380,
      "▁twirled": 7381,
      "▁bookshelf.": 7382,
      "▁anywhere.": 7383,
      "▁jail.": 7384,
      "▁includ": 7385,
      "▁Quick": 7386,
      "▁\"Wait,": 7387,
      "▁faucet": 7388,
      "▁reef": 7389,
      "▁spaceship": 7390,
      "▁velvet": 7391,
      "-year-old": 7392,
      "▁Splash": 7393,
      "'\n": 7394,
      "ier.\n": 7395,
      "ippy": 7396,
      "kin.": 7397,
      "oss": 7398,
      "pin": 7399,
      "rr": 7400,
      "yr": 7401,
      "▁tig": 7402,
      "▁tour": 7403,
      "ite,": 7404,
      "▁lim": 7405,
      "▁dais": 7406,
      "▁cone.": 7407,
      "▁case.": 7408,
      "▁These": 7409,
      "ary,": 7410,
      "▁inch": 7411,
      "▁opin": 7412,
      "▁emer": 7413,
      "▁Moon": 7414,
      "▁she'd": 7415,
      "▁little,": 7416,
      "▁there,\"": 7417,
      "▁white.": 7418,
      "▁loving": 7419,
      "▁releas": 7420,
      "▁some.": 7421,
      "▁caring": 7422,
      "▁cars.\n": 7423,
      "▁nose,": 7424,
      "ouse.": 7425,
      "▁trad": 7426,
      "▁rocking": 7427,
      "▁tower,": 7428,
      "▁Cat.": 7429,
      "▁Anna.\n": 7430,
      "▁highest": 7431,
      "▁We're": 7432,
      "▁bugs,": 7433,
      "▁fly!": 7434,
      "▁flying.": 7435,
      "▁parade": 7436,
      "▁picture,": 7437,
      "▁three.": 7438,
      "▁Jack,": 7439,
      "▁drain.": 7440,
      "▁dress.\n": 7441,
      "▁\"Look!": 7442,
      "▁block.": 7443,
      "▁things.\"\n": 7444,
      "▁\"Because": 7445,
      "▁first.\"\n": 7446,
      "▁noisy.": 7447,
      "▁important,": 7448,
      "▁rule": 7449,
      "▁stop.\n": 7450,
      "▁taste.": 7451,
      "▁match.": 7452,
      "▁acted": 7453,
      "▁printed": 7454,
      "▁apple.\n": 7455,
      "▁fight.\n": 7456,
      "▁bigger.\n": 7457,
      "▁word.": 7458,
      "▁treat.\n": 7459,
      "▁tight,": 7460,
      "▁tightly.": 7461,
      "▁mum,": 7462,
      "▁everywhere.\n": 7463,
      "▁understand,": 7464,
      "▁guy": 7465,
      "▁caused": 7466,
      "▁mud.\n": 7467,
      "▁gifts": 7468,
      "▁barked.": 7469,
      "▁shrugg": 7470,
      "▁\"OK,\"": 7471,
      "▁kingdom": 7472,
      "▁mail.": 7473,
      "▁nuts.": 7474,
      "▁confused.\n": 7475,
      "▁True.": 7476,
      "▁panic.": 7477,
      "▁wheel.": 7478,
      "▁bridg": 7479,
      "▁lemonade": 7480,
      "▁calm.": 7481,
      "▁branch,": 7482,
      "▁tidy.": 7483,
      "▁stories.\n": 7484,
      "▁swimming,": 7485,
      "▁mine!\"\n": 7486,
      "▁bananas.": 7487,
      "▁balanc": 7488,
      "▁milk,": 7489,
      "▁square.": 7490,
      "▁melon.": 7491,
      "▁lab.": 7492,
      "▁floating": 7493,
      "▁lollipop.": 7494,
      "▁\"Hello!": 7495,
      "▁forward,": 7496,
      "▁shovel.": 7497,
      "▁festival.": 7498,
      "▁violin.": 7499,
      "▁microphone.": 7500,
      "▁butterflies.": 7501,
      "▁energ": 7502,
      "▁sir.": 7503,
      "▁grandpa.": 7504,
      "▁shrugged": 7505,
      "▁beamed": 7506,
      "-looking": 7507,
      "▁waste": 7508,
      "▁appreci": 7509,
      "▁Thomas": 7510,
      "▁praised": 7511,
      "fortunately,": 7512,
      "▁slowly.": 7513,
      "-t": 7514,
      "ky": 7515,
      "ling.": 7516,
      "right": 7517,
      "sses.": 7518,
      "ually": 7519,
      "▁witch.": 7520,
      "▁therm": 7521,
      "edd": 7522,
      "▁toe": 7523,
      "on,": 7524,
      "▁Ske": 7525,
      "▁Hope": 7526,
      "▁yet.": 7527,
      "▁days.": 7528,
      "pping,": 7529,
      "▁sting": 7530,
      "▁Binky": 7531,
      "▁Bree": 7532,
      "▁happiest": 7533,
      "▁Mix": 7534,
      "▁mom!": 7535,
      "▁mom?\"": 7536,
      "▁mom.\"": 7537,
      "▁Tom.\"": 7538,
      "▁need.": 7539,
      "▁times,": 7540,
      "▁kitt": 7541,
      "▁there!\"": 7542,
      "▁is!\"": 7543,
      "▁season": 7544,
      "▁dogs,": 7545,
      "▁him!": 7546,
      "▁back!\"\n": 7547,
      "▁Jess": 7548,
      "▁liked.": 7549,
      "▁saying,": 7550,
      "▁scary.\n": 7551,
      "▁some?\"": 7552,
      "▁learn.\n": 7553,
      "▁Dare": 7554,
      "▁\"Little": 7555,
      "▁hose.": 7556,
      "▁pebbles": 7557,
      "▁much.\"\n": 7558,
      "▁one?\"": 7559,
      "▁how.\n": 7560,
      "▁fish!": 7561,
      "▁pretty!": 7562,
      "▁bugs.\n": 7563,
      "▁house!": 7564,
      "pected": 7565,
      "ion.\n": 7566,
      "▁evening,": 7567,
      "▁harder,": 7568,
      "▁by.\n": 7569,
      "▁Not": 7570,
      "▁Joy": 7571,
      "▁staying": 7572,
      "▁kids.\n": 7573,
      "▁\"See": 7574,
      "▁Rich": 7575,
      "▁soon!\"\n": 7576,
      "▁squirrels": 7577,
      "▁think.": 7578,
      "▁toys.\"\n": 7579,
      "▁mommy's": 7580,
      "▁Dad,": 7581,
      "▁brighter": 7582,
      "▁rules": 7583,
      "▁behind.": 7584,
      "▁feelings.": 7585,
      "▁hotel.": 7586,
      "▁zer": 7587,
      "▁cool!\"": 7588,
      "▁fruit.\n": 7589,
      "▁wallet.": 7590,
      "▁slides.": 7591,
      "▁dressed": 7592,
      "▁Buddy,": 7593,
      "▁bigger,": 7594,
      "▁butterfly,": 7595,
      "▁wrong?\"": 7596,
      "▁visited": 7597,
      "▁honey,": 7598,
      "▁talked.": 7599,
      "▁treasures": 7600,
      "▁result": 7601,
      "▁Grace": 7602,
      "▁quiet.\n": 7603,
      "▁Grandma.": 7604,
      "▁eggs,": 7605,
      "▁same.": 7606,
      "▁whistled": 7607,
      "▁upset.\n": 7608,
      "▁Jill.": 7609,
      "▁grumpy.": 7610,
      "▁cave,": 7611,
      "▁smooth.": 7612,
      "▁sour.": 7613,
      "▁numbers.": 7614,
      "▁Bunny,": 7615,
      "▁fingers": 7616,
      "▁cherries.": 7617,
      "▁protec": 7618,
      "▁Jerry.": 7619,
      "▁Birdie": 7620,
      "▁frustrated.\n": 7621,
      "▁fisherman.": 7622,
      "olly,": 7623,
      "▁skull.": 7624,
      "▁trumpet.": 7625,
      "▁pizza.": 7626,
      "▁kisses": 7627,
      "▁universe": 7628,
      "▁cauliflower.": 7629,
      "▁encourag": 7630,
      "▁powder.": 7631,
      "▁smoke.": 7632,
      "▁igloo.": 7633,
      "▁sizes.": 7634,
      "▁urged": 7635,
      "▁toilet.": 7636,
      "▁rot.": 7637,
      "▁remained": 7638,
      "▁microscope": 7639,
      "▁sofa": 7640,
      "▁sofa.": 7641,
      "▁buzzing": 7642,
      "▁marriage": 7643,
      "▁sandwiches": 7644,
      "▁Rocky": 7645,
      "▁lamp.": 7646,
      "▁Tuesday": 7647,
      "▁Steve": 7648,
      "as.": 7649,
      "boo": 7650,
      "jo": 7651,
      "mble": 7652,
      "mm,": 7653,
      "oved": 7654,
      "▁X": 7655,
      "▁ing": 7656,
      "▁tie.": 7657,
      "▁side,": 7658,
      "▁six": 7659,
      "▁waist": 7660,
      "▁dry,": 7661,
      "▁dire": 7662,
      "▁hen": 7663,
      "▁haw": 7664,
      "at,": 7665,
      "let.": 7666,
      "ored": 7667,
      "▁\"y": 7668,
      "▁play?\"\n": 7669,
      "▁Tim!\"\n": 7670,
      "▁stable.": 7671,
      "▁east": 7672,
      "▁Baby": 7673,
      "allen": 7674,
      "▁not,": 7675,
      "▁Aunt": 7676,
      "▁for.\n": 7677,
      "▁reque": 7678,
      "▁tremble": 7679,
      "▁balls,": 7680,
      "▁played.\n": 7681,
      "▁have.": 7682,
      "▁Jon": 7683,
      "▁Jun": 7684,
      "▁see!\"": 7685,
      "ages": 7686,
      "▁tree?\"": 7687,
      "▁chore": 7688,
      "▁chip": 7689,
      "▁challen": 7690,
      "▁best,": 7691,
      "▁excitement.": 7692,
      "▁Lucy.\n": 7693,
      "▁jumping,": 7694,
      "▁faster,": 7695,
      "▁need.\n": 7696,
      "▁Cind": 7697,
      "▁flower.\n": 7698,
      "▁houses,": 7699,
      "▁twisted": 7700,
      "▁listened.": 7701,
      "▁try,": 7702,
      "▁waited.\n": 7703,
      "▁kids,\"": 7704,
      "▁great!": 7705,
      "▁\"She": 7706,
      "▁Ro": 7707,
      "▁trapped": 7708,
      "▁leave,": 7709,
      "▁dead.": 7710,
      "▁planned": 7711,
      "▁eye.": 7712,
      "▁cookies,": 7713,
      "▁mouse.\n": 7714,
      "▁firemen": 7715,
      "▁games.\n": 7716,
      "▁going?\"": 7717,
      "▁importance": 7718,
      "▁here?": 7719,
      "▁began,": 7720,
      "▁feelings": 7721,
      "▁John.": 7722,
      "▁dark.\n": 7723,
      "▁drawing.": 7724,
      "▁zipped": 7725,
      "▁hair.\n": 7726,
      "▁blew,": 7727,
      "▁quickly.\n": 7728,
      "▁candy,": 7729,
      "▁heavy,": 7730,
      "▁lands": 7731,
      "▁What's": 7732,
      "▁paints": 7733,
      "▁carefully,": 7734,
      "▁leaf,": 7735,
      "▁puddle,": 7736,
      "▁horses": 7737,
      "▁Beaky": 7738,
      "▁coat,": 7739,
      "▁street,": 7740,
      "▁smart.\n": 7741,
      "▁shadow.": 7742,
      "▁sparkle": 7743,
      "▁storm.": 7744,
      "▁salt.": 7745,
      "▁market.": 7746,
      "▁lake.\n": 7747,
      "▁bread,": 7748,
      "▁capt": 7749,
      "▁stack.": 7750,
      "▁Something": 7751,
      "▁mine!": 7752,
      "▁engine.": 7753,
      "▁pears": 7754,
      "▁stuff.": 7755,
      "▁Jane,": 7756,
      "▁hurried": 7757,
      "▁wand,": 7758,
      "▁librarian": 7759,
      "▁frowned": 7760,
      "▁road,": 7761,
      "▁intelligent.": 7762,
      "▁olives.": 7763,
      "▁classroom.": 7764,
      "▁bottom.": 7765,
      "▁costume.": 7766,
      "▁scattered": 7767,
      "▁meant,": 7768,
      "▁admiring": 7769,
      "▁Rudy": 7770,
      "▁loaded": 7771,
      "▁haircut.": 7772,
      "▁vehicle.": 7773,
      "▁memory": 7774,
      "▁pit.": 7775,
      "▁patterns": 7776,
      "▁billboard.": 7777,
      "▁basketball.": 7778,
      "▁blueberry": 7779,
      "▁lid.": 7780,
      "▁Remember": 7781,
      "▁energy": 7782,
      "▁earthqu": 7783,
      "▁city.": 7784,
      "▁license": 7785,
      "▁Ducky.": 7786,
      "▁\"Uh": 7787,
      "▁muddy": 7788,
      "▁mattress.": 7789,
      "▁crowd": 7790,
      "▁guessed": 7791,
      "▁goose.": 7792,
      "▁emergen": 7793,
      "-o": 7794,
      "ah": 7795,
      "bles": 7796,
      "hind": 7797,
      "ie,\"": 7798,
      "ler": 7799,
      "ment.": 7800,
      "pr": 7801,
      "uing": 7802,
      "uly": 7803,
      "▁berry": 7804,
      "▁lumber.": 7805,
      "▁he'd": 7806,
      "▁Sc": 7807,
      "▁\"Z": 7808,
      "▁\"m": 7809,
      "▁Hoot": 7810,
      "▁thrill": 7811,
      "▁days.\n": 7812,
      "▁day!\n": 7813,
      "oo-": 7814,
      "▁ris": 7815,
      "▁Mir": 7816,
      "▁web": 7817,
      "▁Abby": 7818,
      "▁for,": 7819,
      "▁soaked": 7820,
      "▁bird.\"\n": 7821,
      "▁helpless.": 7822,
      "▁loop.": 7823,
      "▁catches": 7824,
      "▁spicy.": 7825,
      "▁Benny.": 7826,
      "▁park!\"": 7827,
      "icked": 7828,
      "▁laid": 7829,
      "▁lazy.": 7830,
      "▁meat.": 7831,
      "▁\"When": 7832,
      "▁\"Welcome": 7833,
      "▁everyone,": 7834,
      "▁Spot.\n": 7835,
      "▁sunlight": 7836,
      "▁Dot": 7837,
      "▁open.\n": 7838,
      "▁unf": 7839,
      "▁\"Yummy": 7840,
      "▁sorted": 7841,
      "▁ones.": 7842,
      "▁toys!": 7843,
      "▁home?\"": 7844,
      "▁\"Mr.": 7845,
      "▁enjo": 7846,
      "▁houses.": 7847,
      "▁try!\"": 7848,
      "ions": 7849,
      "▁hardly": 7850,
      "▁overjoy": 7851,
      "▁Put": 7852,
      "▁Pip": 7853,
      "▁colors,": 7854,
      "▁magic!": 7855,
      "▁\"Dad": 7856,
      "▁people,": 7857,
      "▁walk.\n": 7858,
      "▁frog's": 7859,
      "▁places.\n": 7860,
      "▁appro": 7861,
      "▁Kitty!": 7862,
      "▁softly": 7863,
      "▁planet.": 7864,
      "▁toys.\"": 7865,
      "▁ourselve": 7866,
      "▁mommy.\n": 7867,
      "▁ladd": 7868,
      "▁sand,": 7869,
      "▁sleepy,": 7870,
      "▁sound,": 7871,
      "▁holes.": 7872,
      "▁noise,": 7873,
      "▁here!\"\n": 7874,
      "▁own.\n": 7875,
      "▁cooler.": 7876,
      "▁different.\n": 7877,
      "▁touching": 7878,
      "▁wall,": 7879,
      "▁walls.": 7880,
      "▁lions,": 7881,
      "▁friendly.\n": 7882,
      "▁matches": 7883,
      "▁balloon.\n": 7884,
      "▁wagon.": 7885,
      "▁marbles": 7886,
      "▁chair.\n": 7887,
      "▁laugh,": 7888,
      "▁world,": 7889,
      "▁polishing": 7890,
      "▁bottom,": 7891,
      "▁bowl,": 7892,
      "fully": 7893,
      "▁Buddy's": 7894,
      "▁deep,": 7895,
      "▁painting.": 7896,
      "▁else,": 7897,
      "▁waves.": 7898,
      "▁shapes.\n": 7899,
      "▁castles.": 7900,
      "▁school.\n": 7901,
      "▁answer.\n": 7902,
      "▁chases": 7903,
      "▁succeed.": 7904,
      "▁elephant,": 7905,
      "redient": 7906,
      "▁nothing.": 7907,
      "▁shelf,": 7908,
      "▁pan.": 7909,
      "▁Chirpy,": 7910,
      "▁waffle.": 7911,
      "▁socks.": 7912,
      "▁journey.\n": 7913,
      "▁working.": 7914,
      "▁soldi": 7915,
      "▁dependable.": 7916,
      "▁price": 7917,
      "▁trip.\n": 7918,
      "▁circles,": 7919,
      "▁pears.": 7920,
      "▁jogged": 7921,
      "▁else.\"\n": 7922,
      "▁hurricane": 7923,
      "▁acorns": 7924,
      "▁minutes.": 7925,
      "▁discovery": 7926,
      "▁mistakes.": 7927,
      "▁shocked.": 7928,
      "▁cartoons": 7929,
      "▁bracelet.": 7930,
      "▁leopard.": 7931,
      "▁jacket.": 7932,
      "▁Robby": 7933,
      "▁veil.": 7934,
      "▁tank.": 7935,
      "▁refuse": 7936,
      "▁necklace.": 7937,
      "▁Speedy.": 7938,
      "▁museum.": 7939,
      "▁passport.": 7940,
      "▁writing": 7941,
      "▁ribbon.": 7942,
      "▁sunset.": 7943,
      "▁weeping": 7944,
      "▁later.\n": 7945,
      "▁restaurant.": 7946,
      "▁size.": 7947,
      "▁pages.": 7948,
      "▁settled": 7949,
      "▁ruined.": 7950,
      "▁armchair.": 7951,
      "▁dictionary.": 7952,
      "▁dear.": 7953,
      "▁valley": 7954,
      "▁\"Yuck!\"": 7955,
      "▁gazed": 7956,
      "▁glitter": 7957,
      "▁exercise": 7958,
      "▁traffic": 7959,
      "▁fetch": 7960,
      "▁instruct": 7961,
      "▁becoming": 7962,
      "▁surrounded": 7963,
      "▁respon": 7964,
      "▁luxury": 7965,
      "▁Gogo": 7966,
      "▁released": 7967,
      "▁ingredient": 7968,
      "ced": 7969,
      "dy.\n": 7970,
      "e!": 7971,
      "eep": 7972,
      "uke": 7973,
      "uzz": 7974,
      "▁achie": 7975,
      "▁sip": 7976,
      "▁toes": 7977,
      "▁Tuna": 7978,
      "▁Sandy": 7979,
      "▁\"b": 7980,
      "▁\"p": 7981,
      "▁\"w": 7982,
      "▁\"hello": 7983,
      "▁rat.": 7984,
      "▁his.": 7985,
      "▁Luck": 7986,
      "▁friend!\"\n": 7987,
      "▁west": 7988,
      "▁wanting": 7989,
      "ents": 7990,
      "▁that?": 7991,
      "▁there's": 7992,
      "ely.\n": 7993,
      "▁birds.\n": 7994,
      "▁reward.": 7995,
      "▁go,\"": 7996,
      "▁them?\"\n": 7997,
      "umble": 7998,
      "▁spin.": 7999
    },
    "merges": [
      [
        "▁",
        "t"
      ],
      [
        "h",
        "e"
      ],
      [
        "▁",
        "a"
      ],
      [
        "▁",
        "s"
      ],
      [
        "▁",
        "w"
      ],
      [
        "▁t",
        "he"
      ],
      [
        "n",
        "d"
      ],
      [
        "e",
        "d"
      ],
      [
        "▁",
        "b"
      ],
      [
        "▁t",
        "o"
      ],
      [
        "▁a",
        "nd"
      ],
      [
        "▁",
        "T"
      ],
      [
        "▁",
        "h"
      ],
      [
        "▁",
        "f"
      ],
      [
        "i",
        "n"
      ],
      [
        "▁w",
        "a"
      ],
      [
        "r",
        "e"
      ],
      [
        "i",
        "t"
      ],
      [
        "o",
        "u"
      ],
      [
        "▁",
        "l"
      ],
      [
        "▁",
        "d"
      ],
      [
        "▁",
        "c"
      ],
      [
        "▁",
        "p"
      ],
      [
        "▁T",
        "he"
      ],
      [
        "a",
        "y"
      ],
      [
        "▁",
        "m"
      ],
      [
        "e",
        "r"
      ],
      [
        "▁wa",
        "s"
      ],
      [
        "o",
        "m"
      ],
      [
        "▁",
        "he"
      ],
      [
        "i",
        "s"
      ],
      [
        ".",
        "\n"
      ],
      [
        "a",
        "r"
      ],
      [
        "▁",
        "n"
      ],
      [
        "i",
        "m"
      ],
      [
        "o",
        "n"
      ],
      [
        "▁s",
        "a"
      ],
      [
        "l",
        "l"
      ],
      [
        "i",
        "d"
      ],
      [
        "▁",
        "S"
      ],
      [
        "▁h",
        "a"
      ],
      [
        "▁",
        "g"
      ],
      [
        "a",
        "t"
      ],
      [
        "in",
        "g"
      ],
      [
        "o",
        "t"
      ],
      [
        "e",
        "n"
      ],
      [
        "a",
        "n"
      ],
      [
        "l",
        "e"
      ],
      [
        "o",
        "r"
      ],
      [
        "▁",
        "\""
      ],
      [
        "▁",
        "H"
      ],
      [
        "▁The",
        "y"
      ],
      [
        "i",
        "r"
      ],
      [
        "e",
        "t"
      ],
      [
        "a",
        "m"
      ],
      [
        "▁",
        "it"
      ],
      [
        "▁t",
        "h"
      ],
      [
        "i",
        "g"
      ],
      [
        "▁H",
        "e"
      ],
      [
        "i",
        "l"
      ],
      [
        "▁",
        "in"
      ],
      [
        "▁p",
        "l"
      ],
      [
        "o",
        "w"
      ],
      [
        "r",
        "i"
      ],
      [
        "v",
        "er"
      ],
      [
        "u",
        "t"
      ],
      [
        "▁b",
        "e"
      ],
      [
        "▁",
        "u"
      ],
      [
        "▁pl",
        "ay"
      ],
      [
        "it",
        "h"
      ],
      [
        "▁sa",
        "id"
      ],
      [
        "▁",
        "O"
      ],
      [
        "▁",
        "o"
      ],
      [
        "▁w",
        "ith"
      ],
      [
        "▁",
        "y"
      ],
      [
        "▁T",
        "im"
      ],
      [
        "▁d",
        "ay"
      ],
      [
        "p",
        "p"
      ],
      [
        "▁O",
        "n"
      ],
      [
        "o",
        "o"
      ],
      [
        "▁",
        "r"
      ],
      [
        "c",
        "k"
      ],
      [
        "▁",
        "I"
      ],
      [
        "▁S",
        "he"
      ],
      [
        "▁he",
        "r"
      ],
      [
        "c",
        "e"
      ],
      [
        "l",
        "d"
      ],
      [
        "▁s",
        "t"
      ],
      [
        "▁h",
        "is"
      ],
      [
        "k",
        "e"
      ],
      [
        "k",
        "ed"
      ],
      [
        "▁",
        "e"
      ],
      [
        "▁",
        "L"
      ],
      [
        "s",
        "."
      ],
      [
        "n",
        "t"
      ],
      [
        "▁y",
        "ou"
      ],
      [
        "s",
        "t"
      ],
      [
        "▁b",
        "ig"
      ],
      [
        "v",
        "e"
      ],
      [
        "ver",
        "y"
      ],
      [
        "▁",
        "B"
      ],
      [
        "e",
        "nd"
      ],
      [
        "u",
        "n"
      ],
      [
        "▁ha",
        "pp"
      ],
      [
        "▁",
        "on"
      ],
      [
        "y",
        "."
      ],
      [
        "e",
        "."
      ],
      [
        "a",
        "ll"
      ],
      [
        "ri",
        "end"
      ],
      [
        "▁f",
        "riend"
      ],
      [
        "▁",
        "M"
      ],
      [
        "▁the",
        "y"
      ],
      [
        "▁w",
        "e"
      ],
      [
        "▁ha",
        "d"
      ],
      [
        "▁n",
        "ot"
      ],
      [
        "he",
        "r"
      ],
      [
        "▁wa",
        "nt"
      ],
      [
        "▁l",
        "i"
      ],
      [
        "▁said",
        ","
      ],
      [
        "▁u",
        "p"
      ],
      [
        "a",
        "d"
      ],
      [
        "▁o",
        "f"
      ],
      [
        "e",
        ","
      ],
      [
        "▁d",
        "o"
      ],
      [
        "▁",
        "\n"
      ],
      [
        "▁day",
        ","
      ],
      [
        "it",
        "t"
      ],
      [
        "il",
        "y"
      ],
      [
        "'",
        "s"
      ],
      [
        "en",
        "t"
      ],
      [
        "▁th",
        "at"
      ],
      [
        "▁",
        "very"
      ],
      [
        "ou",
        "ld"
      ],
      [
        "▁sa",
        "w"
      ],
      [
        "▁On",
        "e"
      ],
      [
        "▁",
        "A"
      ],
      [
        "▁f",
        "or"
      ],
      [
        "▁s",
        "h"
      ],
      [
        "▁s",
        "o"
      ],
      [
        "▁m",
        "om"
      ],
      [
        "itt",
        "le"
      ],
      [
        "e",
        "s"
      ],
      [
        "▁s",
        "he"
      ],
      [
        "▁T",
        "om"
      ],
      [
        "▁l",
        "ittle"
      ],
      [
        "c",
        "h"
      ],
      [
        "▁L",
        "ily"
      ],
      [
        "\"",
        "\n"
      ],
      [
        "▁n",
        "e"
      ],
      [
        "▁t",
        "im"
      ],
      [
        "▁n",
        "am"
      ],
      [
        "▁",
        "k"
      ],
      [
        "▁the",
        "re"
      ],
      [
        "ou",
        "nd"
      ],
      [
        "e",
        "l"
      ],
      [
        "▁nam",
        "ed"
      ],
      [
        "▁we",
        "re"
      ],
      [
        "▁s",
        "m"
      ],
      [
        "▁b",
        "o"
      ],
      [
        "▁want",
        "ed"
      ],
      [
        "▁b",
        "ut"
      ],
      [
        "▁happ",
        "y"
      ],
      [
        "ou",
        "t"
      ],
      [
        "v",
        "ed"
      ],
      [
        "h",
        "t"
      ],
      [
        "ir",
        "d"
      ],
      [
        "a",
        "ke"
      ],
      [
        "a",
        "l"
      ],
      [
        "▁a",
        "n"
      ],
      [
        "▁b",
        "ird"
      ],
      [
        "▁I",
        "t"
      ],
      [
        "s",
        "e"
      ],
      [
        "▁to",
        "o"
      ],
      [
        "▁",
        "is"
      ],
      [
        "u",
        "g"
      ],
      [
        "▁he",
        "l"
      ],
      [
        "▁w",
        "ent"
      ],
      [
        "▁w",
        "h"
      ],
      [
        "▁On",
        "ce"
      ],
      [
        "▁hel",
        "p"
      ],
      [
        "▁a",
        "ll"
      ],
      [
        "▁l",
        "oo"
      ],
      [
        "▁l",
        "o"
      ],
      [
        "▁up",
        "on"
      ],
      [
        "t",
        "er"
      ],
      [
        "▁tim",
        "e,"
      ],
      [
        "o",
        "re"
      ],
      [
        "g",
        "et"
      ],
      [
        "a",
        "ck"
      ],
      [
        "i",
        "nd"
      ],
      [
        "i",
        "ll"
      ],
      [
        "▁a",
        "s"
      ],
      [
        "▁",
        "j"
      ],
      [
        "▁d",
        "id"
      ],
      [
        "▁f",
        "un"
      ],
      [
        "▁",
        "re"
      ],
      [
        "▁a",
        "t"
      ],
      [
        "▁s",
        "om"
      ],
      [
        "get",
        "her"
      ],
      [
        "ed",
        "."
      ],
      [
        "u",
        "r"
      ],
      [
        "▁s",
        "e"
      ],
      [
        "▁to",
        "gether"
      ],
      [
        "r",
        "a"
      ],
      [
        "!",
        "\""
      ],
      [
        "▁t",
        "re"
      ],
      [
        "am",
        "e"
      ],
      [
        "▁c",
        "at"
      ],
      [
        "▁friend",
        "s"
      ],
      [
        "u",
        "e"
      ],
      [
        "▁to",
        "y"
      ],
      [
        "▁c",
        "ould"
      ],
      [
        "oo",
        "d"
      ],
      [
        "▁do",
        "g"
      ],
      [
        "t",
        "ed"
      ],
      [
        "▁c",
        "an"
      ],
      [
        "id",
        "e"
      ],
      [
        "r",
        "y"
      ],
      [
        "ar",
        "k"
      ],
      [
        "▁the",
        "ir"
      ],
      [
        "e",
        "c"
      ],
      [
        "▁b",
        "all"
      ],
      [
        "ar",
        "d"
      ],
      [
        "l",
        "y"
      ],
      [
        "'",
        "t"
      ],
      [
        "w",
        "ay"
      ],
      [
        "▁a",
        "re"
      ],
      [
        "▁play",
        "ed"
      ],
      [
        "▁g",
        "o"
      ],
      [
        "▁h",
        "im"
      ],
      [
        "▁r",
        "o"
      ],
      [
        "▁the",
        "m"
      ],
      [
        "he",
        "d"
      ],
      [
        "▁g",
        "ir"
      ],
      [
        "▁B",
        "ut"
      ],
      [
        "▁f",
        "r"
      ],
      [
        "a",
        "in"
      ],
      [
        "▁l",
        "e"
      ],
      [
        "▁gir",
        "l"
      ],
      [
        "a",
        "x"
      ],
      [
        "▁k",
        "n"
      ],
      [
        "▁",
        "out"
      ],
      [
        "u",
        "m"
      ],
      [
        "he",
        "n"
      ],
      [
        "▁",
        "W"
      ],
      [
        "▁sa",
        "d"
      ],
      [
        "u",
        "l"
      ],
      [
        "▁M",
        "ax"
      ],
      [
        "▁c",
        "l"
      ],
      [
        "▁ha",
        "ve"
      ],
      [
        "▁\"",
        "I"
      ],
      [
        "ot",
        "her"
      ],
      [
        "▁m",
        "an"
      ],
      [
        "m",
        "y"
      ],
      [
        "i",
        "c"
      ],
      [
        "ou",
        "g"
      ],
      [
        "▁st",
        "ar"
      ],
      [
        "▁lo",
        "ved"
      ],
      [
        "▁loo",
        "ked"
      ],
      [
        "h",
        "ing"
      ],
      [
        "▁s",
        "p"
      ],
      [
        "▁f",
        "ound"
      ],
      [
        "▁b",
        "ack"
      ],
      [
        "▁bo",
        "y"
      ],
      [
        "▁B",
        "en"
      ],
      [
        "▁s",
        "c"
      ],
      [
        "▁c",
        "ar"
      ],
      [
        "ow",
        "n"
      ],
      [
        "a",
        "re"
      ],
      [
        "▁li",
        "ke"
      ],
      [
        "f",
        "ul"
      ],
      [
        "s",
        ","
      ],
      [
        "▁be",
        "c"
      ],
      [
        "▁p",
        "ark"
      ],
      [
        "▁",
        "J"
      ],
      [
        "▁S",
        "am"
      ],
      [
        "o",
        "p"
      ],
      [
        "▁S",
        "ue"
      ],
      [
        "el",
        "t"
      ],
      [
        "▁m",
        "ake"
      ],
      [
        "i",
        "ck"
      ],
      [
        "▁li",
        "ked"
      ],
      [
        "on",
        "g"
      ],
      [
        "ig",
        "ht"
      ],
      [
        "▁w",
        "ould"
      ],
      [
        "▁f",
        "elt"
      ],
      [
        "▁f",
        "a"
      ],
      [
        "Y",
        "ou"
      ],
      [
        "▁se",
        "e"
      ],
      [
        "r",
        "ound"
      ],
      [
        "▁l",
        "a"
      ],
      [
        "e",
        "ll"
      ],
      [
        ".",
        "\"\n"
      ],
      [
        "i",
        "ce"
      ],
      [
        "a",
        "g"
      ],
      [
        "▁star",
        "ted"
      ],
      [
        "▁n",
        "o"
      ],
      [
        "?",
        "\""
      ],
      [
        "▁s",
        "ay"
      ],
      [
        "▁as",
        "ked"
      ],
      [
        "▁ne",
        "w"
      ],
      [
        "▁a",
        "l"
      ],
      [
        "oug",
        "ht"
      ],
      [
        "▁",
        "other"
      ],
      [
        "▁som",
        "et"
      ],
      [
        "▁",
        "F"
      ],
      [
        "▁g",
        "ood"
      ],
      [
        "▁a",
        "g"
      ],
      [
        "▁sm",
        "il"
      ],
      [
        "a",
        "s"
      ],
      [
        "▁m",
        "e"
      ],
      [
        "▁c",
        "ame"
      ],
      [
        "▁sm",
        "all"
      ],
      [
        "▁b",
        "r"
      ],
      [
        "▁m",
        "ad"
      ],
      [
        "on",
        "e"
      ],
      [
        "▁sc",
        "ar"
      ],
      [
        "▁it",
        "."
      ],
      [
        "▁a",
        "way"
      ],
      [
        "o",
        "b"
      ],
      [
        "▁w",
        "or"
      ],
      [
        "▁S",
        "p"
      ],
      [
        "▁th",
        "ing"
      ],
      [
        "▁e",
        "x"
      ],
      [
        "n",
        ","
      ],
      [
        "s",
        ".\n"
      ],
      [
        "i",
        "a"
      ],
      [
        "▁somet",
        "hing"
      ],
      [
        "om",
        "e"
      ],
      [
        "o",
        ","
      ],
      [
        "oo",
        "k"
      ],
      [
        "▁fr",
        "om"
      ],
      [
        "▁th",
        "ought"
      ],
      [
        "▁\"",
        "T"
      ],
      [
        "ri",
        "ed"
      ],
      [
        "▁f",
        "ind"
      ],
      [
        "▁f",
        "l"
      ],
      [
        "▁mad",
        "e"
      ],
      [
        "ou",
        "s"
      ],
      [
        "▁wh",
        "at"
      ],
      [
        "▁p",
        "ut"
      ],
      [
        ".",
        "\""
      ],
      [
        "▁c",
        "o"
      ],
      [
        "▁m",
        "u"
      ],
      [
        "▁play",
        "ing"
      ],
      [
        "▁\"",
        "W"
      ],
      [
        "▁e",
        "very"
      ],
      [
        "▁r",
        "an"
      ],
      [
        "a",
        "ch"
      ],
      [
        "▁Sp",
        "ot"
      ],
      [
        "ar",
        "n"
      ],
      [
        "▁wa",
        "l"
      ],
      [
        "▁M",
        "ia"
      ],
      [
        "d",
        "d"
      ],
      [
        "i",
        "e"
      ],
      [
        "u",
        "c"
      ],
      [
        "a",
        "ve"
      ],
      [
        "▁d",
        "own"
      ],
      [
        "i",
        "le"
      ],
      [
        "▁ag",
        "ain"
      ],
      [
        "▁som",
        "e"
      ],
      [
        "▁tre",
        "e"
      ],
      [
        "▁b",
        "l"
      ],
      [
        "u",
        "re"
      ],
      [
        "u",
        "ck"
      ],
      [
        "▁smil",
        "ed"
      ],
      [
        "k",
        "ing"
      ],
      [
        "e",
        "p"
      ],
      [
        "▁la",
        "ug"
      ],
      [
        "▁le",
        "arn"
      ],
      [
        "n",
        "'t"
      ],
      [
        "▁w",
        "ill"
      ],
      [
        "i",
        "f"
      ],
      [
        "a",
        "b"
      ],
      [
        "▁s",
        "un"
      ],
      [
        "▁bo",
        "x"
      ],
      [
        "▁",
        "You"
      ],
      [
        "▁M",
        "om"
      ],
      [
        "▁p",
        "r"
      ],
      [
        "re",
        "t"
      ],
      [
        "s",
        "ide"
      ],
      [
        "▁a",
        "round"
      ],
      [
        "▁m",
        "y"
      ],
      [
        "▁f",
        "e"
      ],
      [
        "▁too",
        "k"
      ],
      [
        "ou",
        "d"
      ],
      [
        "!",
        "\"\n"
      ],
      [
        "▁w",
        "hen"
      ],
      [
        "▁s",
        "w"
      ],
      [
        "▁you",
        "r"
      ],
      [
        "▁li",
        "ved"
      ],
      [
        "▁c",
        "h"
      ],
      [
        "es",
        ","
      ],
      [
        "n",
        "y"
      ],
      [
        "▁happ",
        "y."
      ],
      [
        "is",
        "h"
      ],
      [
        "et",
        "'s"
      ],
      [
        "▁friend",
        "s."
      ],
      [
        "▁",
        "D"
      ],
      [
        "▁a",
        "b"
      ],
      [
        "an",
        "k"
      ],
      [
        "ed",
        ","
      ],
      [
        "▁g",
        "et"
      ],
      [
        "t",
        "y"
      ],
      [
        "u",
        "s"
      ],
      [
        "ot",
        "h"
      ],
      [
        "▁g",
        "ot"
      ],
      [
        "▁l",
        "ot"
      ],
      [
        "um",
        "p"
      ],
      [
        "▁t",
        "ried"
      ],
      [
        "▁kn",
        "e"
      ],
      [
        "h",
        "at"
      ],
      [
        "is",
        "t"
      ],
      [
        "a",
        "p"
      ],
      [
        "▁kn",
        "ow"
      ],
      [
        "u",
        "st"
      ],
      [
        "▁L",
        "uc"
      ],
      [
        "▁wh",
        "o"
      ],
      [
        "▁man",
        "y"
      ],
      [
        "pp",
        "ed"
      ],
      [
        "▁d",
        "ec"
      ],
      [
        "▁in",
        "t"
      ],
      [
        "nd",
        "er"
      ],
      [
        "i",
        "ve"
      ],
      [
        "y",
        ","
      ],
      [
        "▁kne",
        "w"
      ],
      [
        "▁m",
        "ore"
      ],
      [
        "▁ab",
        "out"
      ],
      [
        "▁",
        "v"
      ],
      [
        "▁p",
        "ret"
      ],
      [
        "p",
        "en"
      ],
      [
        "q",
        "u"
      ],
      [
        "▁\"",
        "L"
      ],
      [
        "▁B",
        "ob"
      ],
      [
        "▁h",
        "ug"
      ],
      [
        "▁an",
        "y"
      ],
      [
        "▁c",
        "are"
      ],
      [
        "a",
        "ce"
      ],
      [
        "▁tim",
        "e"
      ],
      [
        "▁learn",
        "ed"
      ],
      [
        "on",
        "'t"
      ],
      [
        "▁",
        "E"
      ],
      [
        "▁h",
        "o"
      ],
      [
        "u",
        "se"
      ],
      [
        "▁p",
        "o"
      ],
      [
        "ur",
        "p"
      ],
      [
        "f",
        "ter"
      ],
      [
        "▁be",
        "st"
      ],
      [
        "id",
        "ed"
      ],
      [
        "▁ex",
        "c"
      ],
      [
        "▁r",
        "ed"
      ],
      [
        "▁o",
        "pen"
      ],
      [
        "a",
        "use"
      ],
      [
        "▁dec",
        "ided"
      ],
      [
        "▁wa",
        "ter"
      ],
      [
        "ow",
        "er"
      ],
      [
        "▁loo",
        "k"
      ],
      [
        "▁bec",
        "ame"
      ],
      [
        "ou",
        "se"
      ],
      [
        "▁g",
        "re"
      ],
      [
        "▁d",
        "ad"
      ],
      [
        "▁exc",
        "it"
      ],
      [
        ",",
        "\""
      ],
      [
        "way",
        "s"
      ],
      [
        "▁A",
        "nd"
      ],
      [
        "▁Tim",
        "."
      ],
      [
        "▁u",
        "n"
      ],
      [
        "▁al",
        "ways"
      ],
      [
        "a",
        "."
      ],
      [
        "▁bec",
        "ause"
      ],
      [
        "s",
        "s"
      ],
      [
        "▁p",
        "e"
      ],
      [
        "▁Luc",
        "y"
      ],
      [
        "▁e",
        "at"
      ],
      [
        "▁int",
        "o"
      ],
      [
        "▁b",
        "oth"
      ],
      [
        "▁ro",
        "om"
      ],
      [
        "▁\"",
        "H"
      ],
      [
        "▁laug",
        "hed"
      ],
      [
        "▁",
        "ke"
      ],
      [
        "an",
        "t"
      ],
      [
        "le",
        "."
      ],
      [
        "n",
        "n"
      ],
      [
        "u",
        "dd"
      ],
      [
        "▁t",
        "r"
      ],
      [
        "▁j",
        "ump"
      ],
      [
        "▁\"",
        "Y"
      ],
      [
        "▁big",
        ","
      ],
      [
        "▁sh",
        "ow"
      ],
      [
        "▁r",
        "un"
      ],
      [
        "▁th",
        "is"
      ],
      [
        "▁A",
        "nn"
      ],
      [
        "▁n",
        "ice"
      ],
      [
        "▁tre",
        "e."
      ],
      [
        "▁fa",
        "st"
      ],
      [
        "r",
        "is"
      ],
      [
        "▁W",
        "hen"
      ],
      [
        "ing",
        "."
      ],
      [
        "▁fe",
        "el"
      ],
      [
        "u",
        "ll"
      ],
      [
        "▁L",
        "il"
      ],
      [
        "urp",
        "ris"
      ],
      [
        "▁s",
        "l"
      ],
      [
        "?",
        "\"\n"
      ],
      [
        "er",
        "."
      ],
      [
        "ou",
        "r"
      ],
      [
        "▁l",
        "ong"
      ],
      [
        "▁s",
        "urpris"
      ],
      [
        "▁s",
        "k"
      ],
      [
        "▁s",
        "or"
      ],
      [
        "▁a",
        "m"
      ],
      [
        "▁to",
        "ld"
      ],
      [
        "▁friend",
        ","
      ],
      [
        "in",
        "k"
      ],
      [
        "▁park",
        "."
      ],
      [
        "▁g",
        "ra"
      ],
      [
        "▁H",
        "is"
      ],
      [
        "▁happ",
        "en"
      ],
      [
        "▁ro",
        "ck"
      ],
      [
        "▁t",
        "ake"
      ],
      [
        "o",
        "g"
      ],
      [
        "▁e",
        "ach"
      ],
      [
        "▁p",
        "ick"
      ],
      [
        "id",
        "e."
      ],
      [
        "▁to",
        "w"
      ],
      [
        "le",
        "w"
      ],
      [
        "▁on",
        ","
      ],
      [
        "▁thing",
        "s"
      ],
      [
        "▁th",
        "an"
      ],
      [
        "▁g",
        "ave"
      ],
      [
        "▁",
        "or"
      ],
      [
        "▁m",
        "o"
      ],
      [
        "▁\"Y",
        "es,"
      ],
      [
        "▁h",
        "om"
      ],
      [
        "▁\"T",
        "h"
      ],
      [
        "im",
        "al"
      ],
      [
        "▁an",
        "imal"
      ],
      [
        "▁A",
        "s"
      ],
      [
        "▁mu",
        "ch"
      ],
      [
        "▁F",
        "r"
      ],
      [
        "it",
        "e"
      ],
      [
        "▁ne",
        "ed"
      ],
      [
        "▁on",
        "e"
      ],
      [
        "ar",
        "a"
      ],
      [
        "▁",
        "C"
      ],
      [
        "▁st",
        "r"
      ],
      [
        "f",
        "f"
      ],
      [
        "▁S",
        "o,"
      ],
      [
        "r",
        "y."
[...]
